#version: 0.2
t h
i n
a n
r e
t i
e n
th e</w>
e r
o n
e d</w>
o r
o n</w>
r o
e s</w>
an d</w>
a r
o f</w>
a t
in g</w>
t o</w>
s t
i t
a ti
a l
o r</w>
i c
a l</w>
e r</w>
e c
o u
p ro
a c
m en
i n</w>
s i
e s
i l
a t</w>
o m
s u
t s</w>
i s
e l
a s
p l
ati on</w>
f or</w>
th at</w>
a s</w>
c on
v i
on s</w>
u r
d e
men t</w>
v e</w>
r a
d i
a n</w>
f f
u n
a b
a g
o l
c e</w>
c om
i s</w>
l y</w>
re s
r i
u s
e x
p or
p er
ti on</w>
l i
q u
at e</w>
a d
T h
f or
e d
it y</w>
t er
2 0
n o
t ed</w>
e m
v er
w h
o s
c i
l e</w>
a p
ar e</w>
h a
c l
d u
th e
i m
d ing</w>
u l
c h
it h</w>
en t</w>
w ith</w>
a m
e n</w>
er s</w>
t r
ff ic
Th e</w>
at ed</w>
m a
th er</w>
ati ons</w>
b y</w>
l o
t a
g ra
f i
no t</w>
e v
b e</w>
an ce</w>
st r
e a
l d</w>
for m
ou n
p ar
n e
men ts</w>
u d
ou ld</w>
it s</w>
re c
ro m</w>
f rom</w>
es s</w>
qu i
on al</w>
o p
e t
pro vi
ti es</w>
i g
20 0
pro gra
al s</w>
s e
o ver
i d
re d</w>
ha ve</w>
ti ons</w>
re por
er e</w>
s p
d s</w>
at es</w>
e g
i t</w>
s h
c h</w>
en ti
m in
ar y</w>
i r</w>
m an
e ment</w>
ab le</w>
al ly</w>
ti m
er al</w>
p ri
o w
o ffic
er v
du c
e st
provi d
t ing</w>
t h</w>
su r
e ar
re qui
c re
re n
es e</w>
in cl
I n</w>
en c
i z
us e</w>
f un
d er</w>
p a
c o
s o</w>
es s
o ther</w>
b u
h as</w>
con t
vi e
w or
d is
in g
b e
i es</w>
ou t</w>
ac c
20 1
erv ic
the ir</w>
th is</w>
v el
w as</w>
m il
w e</w>
e t</w>
al l</w>
si on</w>
p re
ic h</w>
en t
ec i
A c
I n
ed eral</w>
c al</w>
wh ich</w>
ea r</w>
w ere</w>
s e</w>
p o
b er</w>
b il
form ation</w>
re g
a i
f in
w ould</w>
ro u
y st
pro c
C on
j ec
ou r
1 9
u m
s ec
d at
as s
offic i
progra m</w>
o c
th ese</w>
S t
or e</w>
ap pro
al so</w>
an t</w>
com m
f ic
si g
e ff
p on
p os
enc y</w>
c es</w>
ac ti
in t
f ac
m s</w>
a u
ur e</w>
res s</w>
ag e</w>
or s</w>
in formation</w>
ou r</w>
li on</w>
m e
an g
os t</w>
as e</w>
g h</w>
ati onal</w>
re s</w>
om e</w>
men t
. S
p en
ab il
i ties</w>
re l
su ch</w>
offici als</w>
s yst
tr ac
ma y</w>
s ervic
u t
the y</w>
m ore</w>
f ederal</w>
de vel
e p
a f
over n
D O
dat a</w>
v e
in v
t o
ar g
as ed</w>
it ed</w>
u c
su b
re vie
d ed</w>
t ra
m o
ci es</w>
com pl
a v
o b
t ec
U .S
pl e</w>
en cies</w>
su p
il l</w>
in ter
' s</w>
o per
an s</w>
pl o
st an
p r
i c</w>
u b
repor t</w>
c er
t er</w>
par t
C om
st s</w>
g overn
ti ve</w>
S ec
res pon
l e
ig h
incl ud
l a
ex am
ac h</w>
ad di
U n
y ear</w>
lo w
si d
al l
v er</w>
u s</w>
el y</w>
th an</w>
si ons</w>
es t</w>
ab out</w>
g en
st ate</w>
at ing</w>
D e
plo y
w ill</w>
por t</w>
t e
c or
19 9
man ag
P ro
ati ve</w>
on e</w>
p ol
ar d</w>
an n
in cre
U.S .</w>
per c
ha d</w>
v es</w>
con trac
o g
l is
c oun
ur ity</w>
ic al</w>
abil ity</w>
sig n
id enti
i ti
devel op
m on
W e</w>
en ts</w>
com p
su l
si st
ag encies</w>
th or
c ri
em s</w>
ci al</w>
e i
r u
be en</w>
k ing</w>
an y</w>
ev er</w>
F or</w>
g o
p res
g h
mil lion</w>
t u
w e
th rou
g ress</w>
a use</w>
progra ms</w>
or y</w>
is su
us ed</w>
m is
c ur
s ome</w>
ter min
tr an
c an</w>
m ar
e m</w>
pro jec
im pl
b ec
in ing</w>
r an
k e</w>
os e</w>
en e
i th
sp eci
v ed</w>
i r
fi ed</w>
requi re
c ould</w>
i str
ow ever</w>
ta in</w>
i st
k s</w>
a y</w>
el ec
a il
f e
u ding</w>
in e</w>
ing s</w>
ag ency</w>
h e
throu gh</w>
au thor
s t</w>
provid e</w>
por t
ch ang
b le</w>
un der</w>
re sul
str uc
bu t</w>
incl uding</w>
n um
as t</w>
tim e</w>
wor k</w>
en ce</w>
eff ec
DO D</w>
em ploy
e l</w>
par ti
pa y
de termin
c ap
ren t</w>
ar i
s ti
sur e</w>
k e
es tim
b ene
govern ment</w>
al u
r is
t or</w>
pol ic
en g
a r</w>
w ith
st ates</w>
s .
o w</w>
ti onal</w>
si s</w>
perc ent</w>
b o
o d</w>
ou s</w>
reg ul
per form
ud g
d er
f is
ol og
exam ple</w>
in ed</w>
h n
o ver</w>
ol l
st at
il e</w>
ear s</w>
A s</w>
at eg
re t
ap pl
l ev
servic es</w>
S A</w>
sh i
ne w</w>
us t</w>
al th</w>
Ac t</w>
ci p
pro duc
appro pri
p ub
g u
A d
0 0</w>
al y
rec ei
f o
a y
bec ause</w>
a re
Con gress</w>
t y</w>
di vi
ur ing</w>
t ri
v en
em ber</w>
ab lis
t w
li m
eff or
e ach</w>
p h
as es</w>
manag ement</w>
fis cal</w>
fi r
syst em</w>
com men
num ber</w>
fun ding</w>
y ears</w>
im pro
ai d</w>
ad d
tran s
require ments</w>
proc ess</w>
F Y
min istr
re qu
provid ed</w>
b et
co sts</w>
est ablis
d ic
b ased</w>
ar ds</w>
v ing</w>
part ment</w>
t ors</w>
R e
on g</w>
vi ties</w>
c ost</w>
i f</w>
St ates</w>
di rec
an aly
fin an
repor ted</w>
h i
f y</w>
or d
wh o</w>
Un ited</w>
H owever</w>
li c</w>
ti on
h el
ex p
revie w
per i
sec urity</w>
tec hn
lo c
re commen
impl e
n ational</w>
ai r
ac t</w>
p ur
acti vities</w>
ag re
addi tion</w>
f l
p s</w>
g an
pl an</w>
con duc
it te
stan d
at er</w>
di d</w>
ro l
divi du
revie w</w>
av ail
th ose</w>
u p
sup port</w>
er g
v is
ne ed
A l
er i
fun ds</w>
s ch
c oll
gen er
ati on
n on
O ffic
rel ated</w>
fac il
h ol
ad e</w>
en se</w>
gan iz
per s
m ost</w>
t ly</w>
Th is</w>
s es</w>
in dividu
perform ance</w>
wh en</w>
th re
su m
wor k
p e
el i
ou t
t ure</w>
Com m
e ther</w>
m ea
acc oun
h igh
s ing</w>
our ces</w>
l eg
requi red</w>
enti al</w>
in u
C h
d oc
d o
iz ed</w>
G A
he alth</w>
sp ec
c ul
e -
w el
a ff
syst ems</w>
ter s</w>
u res</w>
ff e
d ec
finan cial</w>
f ra
s it
or ganiz
al i
includ e</w>
ex t
respon si
effor ts</w>
pl ans</w>
A r
s ed</w>
ou gh</w>
U S
tw o</w>
on ly</w>
gu id
f u
ass ess
avail able</w>
y p
sist ance</w>
we en</w>
ri bu
H S</w>
n o</w>
re a
m ade</w>
cont inu
h ow</w>
di t</w>
udg et</w>
pub lic</w>
pro pos
doc u
in to</w>
h ed</w>
oun d</w>
in iti
wh ether</w>
am oun
l arg
u m</w>
a in
bet ween</w>
re sid
ec ted</w>
y ing</w>
f ol
si tion</w>
T o</w>
fi c</w>
d e</w>
ment al</w>
g ro
f ul
m at
ec t</w>
pl ac
ffic i
v ari
De partment</w>
Ac cor
d eci
bil lion</w>
f ense</w>
for m</w>
es ti
ay s</w>
em b
sh ould</w>
addi tional</w>
appl ic
ment ation</w>
S ervic
at t
po t
bil ity</w>
lev el</w>
W h
comm un
f t</w>
E n
d uring</w>
i fic
ris k</w>
u st
il l
con cer
R S</w>
ec on
i l</w>
itte e</w>
l ess</w>
an c
s am
e ments</w>
un der
to t
ac tions</w>
f its</w>
Accor ding</w>
k no
af f</w>
olog y</w>
st aff</w>
develop ment</w>
ent ly</w>
parti cip
us in
com e</w>
str ateg
a st
with in</w>
r e</w>
inv est
et y</w>
it ary</w>
o f
th ough</w>
1 0
la w</w>
o ci
t yp
r on
ed ic
c are</w>
dis c
int en
a w
st ud
A p
P A</w>
for e</w>
Pro gra
pri v
bo th</w>
r it
ig n</w>
servic e</w>
re duc
di ffe
ver al</w>
an ts</w>
ev alu
add ress</w>
tra ining</w>
f ound</w>
pen d
econ om
el s</w>
s ol
R es
at ely</w>
mis sion</w>
all eng
ro l</w>
H ou
ta x</w>
u al</w>
shi p</w>
as sistance</w>
an d
St ate</w>
g rou
cur rent</w>
N ational</w>
g re
Offic e</w>
vel y</w>
Sec ret
or der</w>
pr acti
m ust</w>
, 0
d o</w>
disc us
mar k
E x
S en
pl ann
ess es</w>
vie w
identi fied</w>
polic y</w>
do es</w>
ati ves</w>
wel l</w>
il y</w>
in ce</w>
Ad ministr
projec ts</w>
sti tu
incre ase</w>
ur ther</w>
ear ch</w>
kno w
en sure</w>
lo cal</w>
b udget</w>
man y</w>
sign ific
ma j
s c
includ ed</w>
gh t</w>
bene fits</w>
cer tain</w>
chang es</w>
speci fic</w>
stand ards</w>
A s
st ated</w>
b usin
M ar
determin e</w>
Th ese</w>
F ederal</w>
o ff
for c
M edic
D A</w>
en d</w>
b a
In ter
n s</w>
issu es</w>
re pres
pro b
us ing</w>
al ity</w>
con si
lo w</w>
gener ally</w>
af ter</w>
mea su
recommen d
employ e
par t</w>
s aid</w>
. The</w>
ma in
c ar
mil itary</w>
repor ts</w>
Secret ary</w>
tot al</w>
si ve</w>
u p</w>
am ong</w>
re li
o p</w>
fol low
s elec
D i
on g
ti c
igh t</w>
se veral</w>
o d
re ign</w>
it al</w>
in t</w>
r ic
,0 00</w>
inv ol
em p
guid ance</w>
re as
g i
th ere</w>
provid es</w>
m y</w>
cl ear</w>
P resid
F or
d ers</w>
t e</w>
ow n</w>
c our
ke y</w>
un d</w>
b i
ch il
el ig
are as</w>
elig i
in es</w>
ch alleng
ac k</w>
g ran
oper ations</w>
sur ance</w>
ur al</w>
p er</w>
pot ential</w>
int e
projec t</w>
s af
is l
id e</w>
the m</w>
amoun t</w>
v alu
de fin
n ec
1 1
in dic
review ed</w>
ol d</w>
res t</w>
proc ed
imple men
in du
thre e</w>
ord in
pro tec
emb ers</w>
resul t</w>
ic e</w>
l ed</w>
s m
h ou
sur ve
Sec urity</w>
qu es
o l</w>
ne ed</w>
hel p</w>
A g
M an
d es
vi ron
res ources</w>
fir st</w>
str ic
r ate</w>
. .
se t</w>
ma ke</w>
por ts</w>
is e</w>
at ors</w>
wh ile</w>
de sign
Progra m</w>
analy sis</w>
f er
De fense</w>
b an
ta ined</w>
Presid ent</w>
c ases</w>
sup pl
ex c
ar ly</w>
E PA</w>
identi fy</w>
author ity</w>
C o
ra ft</w>
en ding</w>
reg i
FY 201
iz ation</w>
r ang
ne l</w>
sig h
e .
th er
1 0</w>
ac y</w>
du ce</w>
chang e</w>
in come</w>
Hou se</w>
N e
I RS</w>
im p
ob jec
Administr ation</w>
V A</w>
GA O</w>
ac tion</w>
tr y</w>
cont ribu
A m
g res
si onal</w>
facil ities</w>
for ce</w>
a d</w>
tri es</w>
c en
incre ased</w>
on nel</w>
cont rol</w>
s erv
ass oci
m ul
compl e
es .
ac k
requi re</w>
t est
sigh t</w>
f oc
compl et
struc ture</w>
forc ement</w>
resul ts</w>
fic ation</w>
i d</w>
ep t
ad v
Ar my</w>
priv ate</w>
res earch</w>
im port
D HS</w>
leg isl
S p
wh ere</w>
b eg
no ted</w>
ti ves</w>
individu al</w>
e ve</w>
devel op</w>
establis hed</w>
be ing</w>
coun tries</w>
mon it
fi t</w>
requ est
a im
a de
t en</w>
fic i
F A
u e</w>
at ory</w>
ut ure</w>
l ong
li k
wh at</w>
Servic e</w>
di st
ta x
t on</w>
sch o
ag es</w>
l ic
proced ures</w>
r ant</w>
b ro
erg y</w>
ac qui
e y</w>
n ed</w>
pen di
d ate</w>
me th
ea d</w>
s —
FY 200
compl i
need ed</w>
t old</w>
Sen ate</w>
acc ess</w>
ed ical</w>
p ass
appropri ate</w>
signific ant</w>
as h
parti cul
sam e</w>
mark et</w>
ro s
ti cal</w>
nec ess
str y</w>
esti g
c ase</w>
ter m</w>
ann ual</w>
measu res</w>
on d</w>
ec u
inter view
maj or</w>
con sist
er ve</w>
al low
ex ist
pay ments</w>
fo reign</w>
ac h
ba sis</w>
busin ess</w>
pendi x</w>
ver y</w>
e qui
rec or
pro per
n al</w>
ed uc
s el
me et</w>
Man ag
pur pos
I t</w>
ed g
des cri
abil ities</w>
or t
be fore</w>
go als</w>
con di
impro ve</w>
need s</w>
N o
polic ies</w>
contrac t</w>
d ru
I I</w>
u r</w>
G en
m e</w>
econom ic</w>
I m
A u
f uture</w>
ut e</w>
lim ited</w>
v o
pers onnel</w>
peri od</w>
co ordin
ta k
ad ministr
fic ally</w>
s ince</w>
ent er</w>
n er
n ing</w>
effec ti
comp an
ac hi
v en</w>
d el
r ates</w>
F in
recei ved</w>
en viron
b eli
w ater</w>
conduc ted</w>
r ul
x im
propos ed</w>
et ing</w>
G u
se e</w>
bu il
re ad
l es</w>
w ide</w>
l ine</w>
an ti
de pend
sch ed
jec t</w>
or ity</w>
r or
employe es</w>
respon se</w>
sit e</w>
un i
requ est</w>
Wh ile</w>
w ay</w>
ffici ent</w>
ar ies</w>
ta ke</w>
it e</w>
lik ely</w>
imple mentation</w>
C or
g a
ic i
ain st</w>
z ed</w>
M S</w>
. C
N A
ext ent</w>
organiz ations</w>
la w
coll ec
d re
f urther</w>
g g
struc tion</w>
compli ance</w>
de b
3 0</w>
ar ding</w>
cl aim
inv estig
se qu
practi ces</w>
ren tly</w>
o ds</w>
en forcement</w>
individu als</w>
r ing</w>
saf ety</w>
indu stry</w>
ing ton</w>
fu l</w>
pre vi
si on
repor ting</w>
com pon
Sec tion</w>
qu ality</w>
200 8</w>
bil l</w>
prob l
er ic
follow ing</w>
t re
d ence</w>
201 0</w>
er ing</w>
cor por
the n</w>
or ing</w>
ag ainst</w>
ou s
200 9</w>
plann ing</w>
pa y</w>
re ment</w>
provi sions</w>
Am eric
S ept
W ash
m edical</w>
with out</w>
effec tive</w>
um an</w>
b ur
develop ed</w>
s en
re ma
1 2
z e</w>
h owever</w>
Comm ittee</w>
au dit</w>
1 .
regul ations</w>
Manag ement</w>
Wash ington</w>
con sid
add res
estim ates</w>
si ble</w>
offic e</w>
over sight</w>
gres sional</w>
acc or
diffe rent</w>
Con t
le ad
j o
l edg
exist ing</w>
in stitu
ap p
DO E</w>
m it
A n
associ ated</w>
eg r
Sept ember</w>
de red</w>
recommend ations</w>
lev els</w>
gen eral</w>
p ow
iz e</w>
R ec
200 5</w>
ver age</w>
cont rol
k ed</w>
A f
ffic ul
provi ding</w>
recei ve</w>
me di
P ar
ev en</w>
ig h</w>
in surance</w>
challeng es</w>
f il
as si
ren ce</w>
plac e</w>
develop ing</w>
ac e</w>
e vi
f am
pur ch
a men
is t</w>
estim ated</w>
Al though</w>
S e
in spec
re duce</w>
t arg
us es</w>
p ment</w>
in st
y -
fun c
ab or
de ta
necess ary</w>
accor ding</w>
H e
our ce</w>
st a
know ledg
O M
op ul
B o
issu ed</w>
m embers</w>
ex peri
di fficul
port ation</w>
ful ly</w>
A ir</w>
H .
larg e</w>
con cl
vari ous</w>
eligi ble</w>
invest ment</w>
probl ems</w>
ol s</w>
at or</w>
d ings</w>
in c
re ven
pay ment</w>
mul ti
u ch</w>
mat eri
ear ly</w>
R A</w>
se ts</w>
concer ns</w>
it ing</w>
di es</w>
com b
200 7</w>
ad j
il i
techn ology</w>
Sp eci
m ight</w>
I f</w>
ter ror
tak en</w>
200 6</w>
inte rest</w>
responsi ble</w>
ic ally</w>
F o
B u
si mil
ma king</w>
m ary</w>
sm all</w>
appro ach</w>
conduc t</w>
e ti
u clear</w>
P l
5 0</w>
A I
ch arg
gro w
stud y</w>
selec ted</w>
author ized</w>
import ant</w>
vi ol
F E
c op
comm ittee</w>
requi res</w>
N av
200 4</w>
a ir</w>
Di rec
y s
p opul
s al
po si
ter n
cap ital</w>
c c
pa red</w>
rea sur
c over
D ec
t able</w>
con sum
n i
P .
is m</w>
complet e</w>
For ce</w>
f our</w>
u le</w>
fac tors</w>
T reasur
us ti
ic es</w>
ust om
tic s</w>
rec ent</w>
assess ment</w>
cre dit</w>
a ud
appropri ations</w>
2 0</w>
compan ies</w>
j ur
contrac ts</w>
f ying</w>
ar d
M A</w>
el l
produc ts</w>
e f</w>
tra de</w>
v ity</w>
Treasur y</w>
deci sions</w>
19 8
v ol
objec tives</w>
ecu tive</w>
pri or</w>
as ing</w>
ass ess</w>
le ast</w>
S yst
C oun
direc t</w>
dre n</w>
Gen eral</w>
ret ur
P S</w>
or ies</w>
200 3</w>
du e</w>
in a</w>
are a</w>
ros s</w>
offici al</w>
un e</w>
el d</w>
comm er
qu ar
S ome</w>
pro gress</w>
imp act</w>
elec tr
issu e</w>
g rant</w>
d eli
c ateg
201 1</w>
c all
s o
R eg
techn ical</w>
offic es</w>
ex pl
sp ending</w>
200 0</w>
res ol
grou ps</w>
interview ed</w>
l and</w>
de m
equi pment</w>
typ es</w>
su cc
includ es</w>
ch ar
ous ly</w>
c a
O n
p tion</w>
mon th
Un der</w>
o re
repres ent
h igh</w>
rit eri
e red</w>
ta in
cri tical</w>
a verage</w>
ob tain</w>
OM B</w>
ti l</w>
high er</w>
ar m
GA O
sub ject</w>
th ers</w>
ade qu
li g
impl ement</w>
acc ur
201 2</w>
an u
deci sion</w>
1 5</w>
sig n</w>
continu e</w>
bene fit</w>
en sive</w>
en d
reas on
proc ess
fun d</w>
exp ected</w>
comp eti
C A
J une</w>
commun ic
P. L</w>
surve y</w>
port un
st ed</w>
stat us</w>
sec tion</w>
m it</w>
fer red</w>
agre ement</w>
d om
in ation</w>
Mar ch</w>
reg arding</w>
consi dered</w>
accoun t</w>
1 1</w>
sh ow
coun try</w>
c riteri
200 2</w>
P er
v al</w>
ab or</w>
gran ts</w>
contrac tor</w>
int egr
d ay</w>
i or</w>
n at
ac ted</w>
ex per
produc tion</w>
dist ribu
ric ul
C our
e ase</w>
S E
pow er</w>
valu e</w>
in ci
m i
establis h
200 1</w>
ph ys
simil ar</w>
grou p</w>
Medic are</w>
D .C
over all</w>
I ra
. In</w>
vie w</w>
n ess</w>
al loc
perc ent
J u
ta ining</w>
b or
fra structure</w>
sup por
He alth</w>
u fac
J anu
ex pen
H. R</w>
b al</w>
F T
res p
d ays</w>
em erg
l os
Janu ary</w>
sub stan
Dec ember</w>
D.C .</w>
M ay</w>
work ers</w>
O c
ven ess</w>
b ed</w>
ep s</w>
su fficient</w>
c al
inter national</w>
sec tor</w>
implemen ting</w>
l ing</w>
non -
estim ate</w>
C B
u tion</w>
ve red</w>
ab o
de partment</w>
b al
in e
hol ders</w>
ques tions</w>
2 .
establis h</w>
cur rently</w>
ac ross</w>
cour t</w>
F e
- term</w>
ex t</w>
bil ities</w>
chil dren</w>
Nav y</w>
bene fici
evi dence</w>
employ ment</w>
docu ments</w>
min im
ei ther</w>
se par
h om
proc esses</w>
c raft</w>
discus sed</w>
acqui sition</w>
t est</w>
n am
cer ti
un til</w>
i ed</w>
con struction</w>
Ju ly</w>
rul es</w>
agre ed</w>
h ic
ob lig
201 3</w>
st -
an other</w>
Ne w</w>
po sition</w>
- 1
p ati
n uclear</w>
proper ty</w>
lis t</w>
inten ded</w>
rang e</w>
criteri a</w>
n er</w>
Medic aid</w>
strateg ic</w>
appro ved</w>
ne t
b el
com ments</w>
Ap pro
in depend
condi tions</w>
se e
201 4</w>
w ar
beli eve</w>
O n</w>
ris ks</w>
T ra
al tern
Cour t</w>
educ ation</w>
require ment</w>
ro w
ro le</w>
review s</w>
ep t</w>
en h
law s</w>
fi ve</w>
T ran
R C</w>
v ement</w>
fin al</w>
I s
s av
deta il
ru le</w>
re fl
l ack</w>
su gg
ac tu
man ufac
monit oring</w>
stat ut
pre h
w ays</w>
mit ted</w>
determin ed</w>
ne t</w>
g e</w>
comple ted</w>
W or
st u
t or
rea u</w>
dru g</w>
op portun
A C
F DA</w>
h is</w>
en ergy</w>
claim s</w>
sid e</w>
st eps</w>
O ur</w>
D ev
legisl ation</w>
h uman</w>
as s</w>
ec ts</w>
implemen ted</w>
I S
C MS</w>
bet ter</w>
Ap pendix</w>
abo ve</w>
recommen ded</w>
stan ding</w>
ic s</w>
leg al</w>
cl o
de mon
hou sing</w>
as sets</w>
ra is
cri min
al low</w>
cor rec
test ing</w>
fo od</w>
tre at
gre ater</w>
demon str
contrac tors</w>
t el
air craft</w>
scho ol</w>
Oc to
pos sible</w>
s ources</w>
cap ac
consid er
p ast</w>
particul ar</w>
t le</w>
provid ers</w>
Servic es</w>
consist ent</w>
wor king</w>
o thers</w>
effec t</w>
Octo ber</w>
oper ating</w>
strateg y</w>
ve hic
U.S .
en s</w>
of ten</w>
As s
low er</w>
po in
regi onal</w>
Dev el
ic t</w>
lo an</w>
chil d</w>
m ig
ter ans</w>
pa id</w>
1 2</w>
w rit
e ed
e ts</w>
s et
inten ance</w>
qu ali
re ti
request ed</w>
l in
de ploy
H U
C C</w>
p at
gh ts</w>
pl es</w>
os p
cl os
responsi bilities</w>
3 .
fin dings</w>
provi sion</w>
A pri
Apri l</w>
v al
en ing</w>
oper ation</w>
ad op
car ri
fun ded</w>
u t</w>
docu mentation</w>
gro und</w>
sit es</w>
2 5</w>
regul atory</w>
H HS</w>
di stric
A t</w>
ob tained</w>
commer cial</w>
sh are</w>
pri mary</w>
techn olog
Speci fically</w>
con gressional</w>
G overn
Cor ps</w>
c ustom
enti ties</w>
in fl
in frastructure</w>
d ra
Ag ency</w>
re stric
n ers</w>
T SA</w>
I A</w>
sta ke
sched ule</w>
an t
c as
rel ev
xim ately</w>
no ti
201 5</w>
pend it
ati c</w>
en rol
P ol
recor ds</w>
mea sure</w>
purpos es</w>
ch o
re mo
l l</w>
organiz ation</w>
de sign</w>
ver s
facil ity</w>
cover age</w>
T able</w>
commun ity</w>
ac ts</w>
inter nal</w>
FA A</w>
cur red</w>
tim es</w>
c y
achi ev
oc c
effor t</w>
Americ an</w>
we ap
S B
pr ice</w>
E duc
li f
consi der</w>
Ad di
gen ce</w>
T it
s ing
oper ational</w>
en ted</w>
agre ements</w>
progra m
or ig
o u</w>
ful l</w>
fe rence</w>
u ti
hel d</w>
acti ve</w>
min ist
- based</w>
es —
exp an
p an
difficul t</w>
o il</w>
o t
h e</w>
gi ven</w>
reason able</w>
initi atives</w>
I S</w>
rec og
over y</w>
f er</w>
w ea
th ir
substan ti
bro ad
pos ed</w>
mo di
o k</w>
an ces</w>
administr ative</w>
control s</w>
ren ces</w>
Tit le</w>
stu dies</w>
com pared</w>
cap abilities</w>
m et</w>
evalu ation</w>
capac ity</w>
F urther</w>
pro mo
Bu reau</w>
foc us</w>
relev ant</w>
appro ximately</w>
invol ved</w>
Devel op
h an
f re
st ri
un its</w>
adj ust
plann ed</w>
know n</w>
de fense</w>
lo ans</w>
ne w
T A
O r
In formation</w>
C en
f ail
Fe b
ma intenance</w>
ex pendit
go ing</w>
HU D</w>
N or
effecti veness</w>
stand ard</w>
Ch ina</w>
is dic
comm it
a k
com par
b er
tax pay
preh ensive</w>
percent age</w>
fi eld</w>
the re
Direc tor</w>
o ple</w>
e th
li gence</w>
pri or
Gu ard</w>
0 .
ch ec
environ mental</w>
ra ther</w>
fac e</w>
m uch</w>
h al
Educ ation</w>
previ ously</w>
effec ts</w>
stan ces</w>
e qu
cen tr
op e</w>
C O
ex cl
sav ings</w>
as sum
bel ow</w>
al ized</w>
con c
hol d</w>
E m
O ther</w>
compon ents</w>
Feb ru
J o
sti ll</w>
he ad
trans portation</w>
d raft</w>
Febru ary</w>
Syst em</w>
applic ation</w>
el and</w>
h ist
B ec
design ed</w>
o t</w>
acti vity</w>
pre v
jur isdic
particip ants</w>
en ded</w>
g e
itte es</w>
y s</w>
for ces</w>
A ff
popul ation</w>
shi ps</w>
H A</w>
ou th</w>
4 .
grow th</w>
f f</w>
assess ments</w>
ter ms</w>
al though</w>
- year</w>
de l</w>
electr on
su s</w>
po int</w>
Appro pri
I C</w>
ar ing</w>
li ght</w>
et ter</w>
esti c</w>
h osp
ne go
nego ti
main tain</w>
Com mission</w>
D is
ou ra
ati vely</w>
typ e</w>
ac ter
tion ally</w>
gra ph
b est</w>
ma k
Bec ause</w>
an ds</w>
sol id
sign ed</w>
is tics</w>
en tion</w>
co vered</w>
I T</w>
pro hi
y ou</w>
initi al</w>
lif e</w>
P ri
No v
institu tions</w>
aff ect</w>
t ow
On e</w>
199 6</w>
t ural</w>
- 2
1 8</w>
pe ople</w>
amoun ts</w>
S ta
de part
sur ing</w>
L i
y .
vi sion</w>
direc tly</w>
high -
de f
M a
199 7</w>
US DA</w>
protec tion</w>
read y</w>
Tran s
e ffici
anc ed</w>
pl e
stud ents</w>
sh ort
in form
dat ab
5 .
- related</w>
l ines</w>
t om
month s</w>
ar m</w>
in corpor
en acted</w>
ud ed</w>
inc enti
O per
ex i
el ines</w>
C D
pr ices</w>
O P
u ally</w>
fe es</w>
pol iti
cal cul
ec han
fir ms</w>
inte re
enti ally</w>
al e</w>
Nov ember</w>
usti ce</w>
pen s
Au g
orig in
d ated</w>
comp any</w>
indic ated</w>
Th ey</w>
sc ope</w>
sti t
In di
recommend ation</w>
E A</w>
o m</w>
re vis
per form</w>
R el
defin ed</w>
treat ment</w>
si ze</w>
ub lic</w>
stake holders</w>
st e
up on</w>
u sions</w>
ast er</w>
S ub
od ology</w>
ti c</w>
l it
eligi bility</w>
el ine</w>
199 8</w>
ad minist
r y</w>
com prehensive</w>
I P</w>
incre ases</w>
go al</w>
S SA</w>
Appropri ations</w>
emerg ency</w>
air s</w>
appl y</w>
pr is
recog n
com es</w>
- 0
g as</w>
form s</w>
incre asing</w>
long -term</w>
re cip
s ource</w>
s cre
ci l</w>
me eting</w>
ab ly</w>
En ergy</w>
manag ers</w>
C enter</w>
C ol
s k
recip i
continu ed</w>
responsi bility</w>
mar ily</w>
sp on
ren g
s ci
Aug ust</w>
S tr
in i
pub lic
dom estic</w>
l ast</w>
si t</w>
mis sions</w>
por tion</w>
ro duc
process ing</w>
reduc ed</w>
iz ing</w>
sec ond</w>
d en
acc ord
it ation</w>
d ents</w>
ri ghts</w>
es p
offic ers</w>
m echan
sing le</w>
B an
p il
adequ ate</w>
de tec
S u
re r
lo bal</w>
0 ,000</w>
char acter
acc ep
S o
199 9</w>
w ast
pass ed</w>
iti g
er ship</w>
ci r
independ ent</w>
fra u
pri marily</w>
con sul
el im
1 3</w>
ha ving</w>
a in</w>
mo del</w>
speci al</w>
at s</w>
represent atives</w>
6 .
m an</w>
applic ations</w>
dis cre
syst em
stat ement</w>
call ed</w>
multi ple</w>
t es</w>
ke ts</w>
si a</w>
l s</w>
U .
ang u
19 7
O ver
.. ..
t as
aff ected</w>
T ec
t ability</w>
produc t</w>
particul arly</w>
j udg
technolog ies</w>
ac ks</w>
a vi
effecti vely</w>
scho ols</w>
is h</w>
collec tion</w>
FE MA</w>
reduc tion</w>
p ed</w>
hal f</w>
1 00</w>
ic ations</w>
F und</w>
h o
enc oura
work force</w>
dec re
show s</w>
ex ecutive</w>
succ ess
ver s</w>
Develop ment</w>
ex pres
Co ast</w>
quar ters</w>
benefici aries</w>
S up
statut ory</w>
em is
s ent</w>
B udget</w>
1 4</w>
pro f
r ation</w>
it ems</w>
ap pendix</w>
F ir
concer n</w>
l ead</w>
rer s</w>
achi eve</w>
reven ue</w>
c y</w>
sh own</w>
li ke</w>
g s</w>
h ome</w>
ar s</w>
e re
amen d
c ing</w>
US AI
in su
b ri
ex emp
ve ments</w>
deb t</w>
d ates</w>
lim it</w>
om e
sh aring</w>
vi l</w>
O b
appro val</w>
par ties</w>
S A
C A</w>
w w
3 1</w>
t ur
op tions</w>
politi cal</w>
cre d
govern ments</w>
il ies</w>
cen ters</w>
no w</w>
Pol ic
R A
c ha
Tec hn
o s</w>
accord ance</w>
t uring</w>
comm ittees</w>
func tions</w>
accoun ts</w>
fu el</w>
contribu tions</w>
form ul
re ach</w>
Bo ard</w>
S .</w>
7 .
F un
employe e</w>
purpos e</w>
ist an</w>
sugg est
201 6</w>
T O</w>
cre ated</w>
inv ent
Pro c
ve l</w>
defin i
experi enc
l angu
si c</w>
n esses</w>
y et</w>
writ ten</w>
c um
b udg
el ements</w>
exper ts</w>
si x</w>
clo sure</w>
purch ase</w>
USAI D</w>
invest ments</w>
actu al</w>
foc used</w>
N S
buil ding</w>
com pens
199 5</w>
ri ght</w>
fam ily</w>
ort g
p tions</w>
minim um</w>
ag ed</w>
c ed</w>
e ed</w>
P ublic</w>
evalu ate</w>
st or
sub mitted</w>
ann oun
sp ace</w>
detail ed</w>
s erve</w>
coordin ation</w>
v ili
al ready</w>
1 6</w>
previ ous</w>
D istr
re d
Govern ment</w>
analy zed</w>
R us
3 0
u rement</w>
Aff airs</w>
I II</w>
st reng
ban ks</w>
ud e</w>
T C</w>
speci fically</w>
sched ul
A n</w>
an tly</w>
beg an</w>
I C
tain s</w>
Res erve</w>
materi al</w>
m itig
expendit ures</w>
Re port</w>
Comm er
m ember</w>
n ation
maj ority</w>
CB P</w>
4 0</w>
bor row
s er
Im pro
coun ter
R ep
it ations</w>
att emp
men d
l ong</w>
au tom
pers on</w>
H om
1 8
v ic
p ut</w>
fic ations</w>
facil it
h ear
ner ship</w>
sam ple</w>
su per
st ar
g .</w>
ve terans</w>
altern ative</w>
larg est</w>
d es</w>
prohi b
on going</w>
me work</w>
Coun cil</w>
in ess</w>
ar ri
Se e</w>
accep ted</w>
suppl y</w>
W e
b ack
particip ation</w>
ear li
cl assi
en ter
recei ving</w>
serv ed</w>
ban k</w>
contrac ting</w>
s. The</w>
electron ic</w>
pen ding</w>
S ince</w>
elim in
rema ining</w>
n ation</w>
fe w</w>
me ans</w>
f lo
P A
pub lis
propos als</w>
crimin al</w>
O S
bec ome</w>
perform ed</w>
Distr ict</w>
2 1</w>
posi tions</w>
reli able</w>
f requ
Inter national</w>
C F
lic en
plac ed</w>
ad ded</w>
l ater</w>
ag ricul
inst all
propos al</w>
rel ation
e. g.</w>
u ro
Pl an</w>
determin ing</w>
Addi tionally</w>
th ings</w>
legisl ative</w>
tow ard</w>
jo int</w>
shi p
F ig
- 9
A t
ach es</w>
thir d</w>
li sted</w>
t em
Ira q</w>
langu age</w>
rec ently</w>
pot entially</w>
weap ons</w>
si bility</w>
infl u
ap s</w>
J ustice</w>
addres sed</w>
I G</w>
fi g
d am
descri bed</w>
compon ent</w>
poin ts</w>
E ff
vari ety</w>
wea k
ar ch
la r</w>
ad vis
d ent</w>
Un i
terror ism</w>
b ack</w>
arg u
comm on</w>
dec l
cl e
er -
Wh en</w>
ex ic
tion ed</w>
conduc ting</w>
of tw
mo der
pre mi
D uring</w>
ven tion</w>
con solid
environ ment</w>
a ren
uti li
gu ar
coll ected</w>
cap ability</w>
M exic
m ortg
manufac tu
pur su
fe e</w>
o ther
p i
G SA</w>
b as
sec ur
sub mit</w>
t ation</w>
sub sequ
ci vili
identi fying</w>
pati ent</w>
Fig ure</w>
prev ent</w>
ati s
materi als</w>
ver sion</w>
categ ories</w>
cont act</w>
us e
ati sti
d ri
part y</w>
199 4</w>
separ ate</w>
int el
earli er</w>
dem and</w>
Str ateg
1 7</w>
mig ration</w>
ra di
b ase</w>
fam ilies</w>
ni a</w>
6 0</w>
No t</w>
experi ence</w>
0 s</w>
C l
on -
ch em
allow ed</w>
st ra
S S
s ha
establish ing</w>
sist ant</w>
reduc ing</w>
re ferred</w>
expen ses</w>
M o
l abor</w>
L abor</w>
GAO -0
diffe rences</w>
E uro
reas ons</w>
man age</w>
net work</w>
rema in</w>
olog ical</w>
Ac coun
ul ner
po st
con stitu
tra vel</w>
resp ec
D at
Fin ally</w>
cop ies</w>
pass eng
ud ici
stit ute</w>
strateg ies</w>
St at
ed .
nat ural</w>
ta king</w>
frau d</w>
int roduc
sub si
in ning</w>
pr in
mar kets</w>
U.S. C</w>
c am
retur n</w>
h our
te es</w>
D S</w>
distribu tion</w>
oftw are</w>
a m</w>
Al so</w>
Res earch</w>
In v
er c
p ing</w>
Fin an
rais ed</w>
commun ities</w>
w ise</w>
T a
vol un
or i
out side</w>
practi ce</w>
meth ods</w>
as ked</w>
busin esses</w>
2 4</w>
s atis
Ex ecutive</w>
s ome
et ary</w>
re pa
on y</w>
request s</w>
Finan cial</w>
av o
b ers</w>
co ver</w>
l ands</w>
Sta ff</w>
opportun ities</w>
Nor th</w>
So cial</w>
C ali
design ated</w>
M in
ord ers</w>
st aff
ti vely</w>
hou se
I N
con fl
charg e</w>
author ities</w>
Hom eland</w>
Au thor
ut er</w>
ti z
intel ligence</w>
s -
trac k</w>
fi es</w>
Pro tec
b an</w>
mon ey</w>
c enter</w>
C E
bo ard</w>
f are</w>
refl ect</w>
ur ther
Af gh
monit or</w>
z ing</w>
aw ard</w>
2 2</w>
st er</w>
impro vements</w>
O s</w>
trans fer</w>
C S
20 2</w>
t en
P o
applic able</w>
in s</w>
struc tu
pri ority</w>
Cali for
Comm un
dru gs</w>
long er</w>
phys ici
u es</w>
w ai
low -
l -
coll abor
. go
ver i
d -
C ap
pos e</w>
i als</w>
protec t</w>
loc ated</w>
loc ation</w>
K ore
direc ted</w>
distric t</w>
c u
C S</w>
Polic y</w>
requi ring</w>
addres sing</w>
docu ment</w>
signific antly</w>
W ith</w>
ver se</w>
w er</w>
ill s</w>
deli very</w>
pl ic
cas h</w>
re form</w>
impro ving</w>
v ulner
assi st</w>
m ed</w>
datab ase</w>
e very</w>
speci fied</w>
ma xim
regul ation</w>
ci tiz
wor ks</w>
pres ent</w>
oper ate</w>
head quarters</w>
compl ain
emp ha
SE C</w>
M ost</w>
proc urement</w>
employ ers</w>
expres sed</w>
M ore
st oc
oun d
guar an
ai m</w>
Califor nia</w>
us ers</w>
regi on</w>
comm is
b es</w>
s oftware</w>
d own</w>
trans actions</w>
sal es</w>
un it</w>
rel atively</w>
ffe red</w>
consider ation</w>
Commer ce</w>
suppor ting</w>
cre ate</w>
lim its</w>
More over</w>
spon s
meth odology</w>
tri bu
M A
adv ant
n ext</w>
stat ute</w>
u sion</w>
m un
el ess</w>
w ard</w>
is h
targ et</w>
H a
ro und</w>
iz es</w>
de v
As sistance</w>
fl exi
at eral</w>
loc ations</w>
en suring</w>
Th ere</w>
y our</w>
rel e
Fir st</w>
pres cri
SB A</w>
s y
lim itations</w>
terror ist</w>
l ea
ing ly</w>
pers ons</w>
or t</w>
hol ds</w>
repor t
urther more</w>
appropri ation</w>
phys ical</w>
th us</w>
c ally</w>
nam e</w>
re ly</w>
tax es</w>
C s</w>
1 3
su res</w>
sp ent</w>
co st-
F urthermore</w>
I P
substanti al</w>
cir cum
accoun ting</w>
o graph
1 5
Q u
1 9</w>
hour s</w>
indu stri
h and
mo d
b ran
ex erc
in -
emis sions</w>
concl usions</w>
t ren
initi ative</w>
Dat a</w>
accur ate</w>
los s</w>
invent ory</w>
im il
d oll
fra mework</w>
y ond</w>
coll ect</w>
t estim
Trans portation</w>
enc es</w>
F D
bi a</w>
Com ments</w>
b order</w>
to -
Con gressional</w>
prior ities</w>
ann ually</w>
reti rement</w>
e .</w>
knowledg e</w>
ne arly</w>
oblig ations</w>
con tained</w>
ar ded</w>
Offic ials</w>
resul ted</w>
typ ically</w>
o di
reli ability</w>
ques tion</w>
ea m</w>
Reg ul
al ty</w>
wast e</w>
vis ited</w>
sen ior</w>
thre at</w>
8 .
stat ements</w>
tra di
W ith
In t
S h
per man
L e
men ted</w>
ma il</w>
Progra ms</w>
t -
resul ting</w>
effici ency</w>
throu gh
I V</w>
econom y</w>
dat ory</w>
administr ation</w>
ha z
al -
ci vil</w>
tim ely</w>
prof es
s ou
par ts</w>
guid elines</w>
taxpay ers</w>
qu anti
de n</w>
l abor
vehic les</w>
a ul
recipi ents</w>
Ban k</w>
revis ed</w>
appl ied</w>
f -
analy ses</w>
5 12
ar ily</w>
there fore</w>
C hi
c an
as p
pil ot</w>
bil ls</w>
c ited</w>
form er</w>
le m</w>
sh all</w>
z ation</w>
sit u
sm all
con tr
re ac
off er</w>
civili an</w>
resol ution</w>
res ource</w>
2 3</w>
op tion</w>
elec tion</w>
As sistant</w>
respon d</w>
ba sic</w>
e ted</w>
er ally</w>
l en
F B
in f
test s</w>
we e
accoun tability</w>
dis aster</w>
I s</w>
Jo int</w>
enh ance</w>
l ear
fir m</w>
beli ev
bal ance</w>
Ass oci
OP M</w>
S af
4 0
scre ening</w>
inter pre
In iti
ig n
out comes</w>
discus s</w>
b r
val id
competi tive</w>
on e-
author ization</w>
im bur
Pro vi
tion ary</w>
th em
larg er</w>
exc ep
M is
to ok</w>
Com p
doll ars</w>
on d
assess ed</w>
no v
g lobal</w>
bro ad</w>
E U</w>
al ong</w>
O f</w>
F ac
re main
pers onal</w>
un less</w>
impro ved</w>
C P
L o
5 0
P h
FT A</w>
fre e</w>
prob lem</w>
on es</w>
w id
al most</w>
ro ad
proc eed
govern ment
1 ,
cl aim</w>
under st
i .
dra w
resp ect</w>
st atisti
compens ation</w>
depart ments</w>
9 .
co st
oc curred</w>
defini tion</w>
9 0</w>
concl uded</w>
cl ose</w>
es sion</w>
V e
avail ability</w>
ag g
NA SA</w>
nat ure</w>
m es</w>
be yond</w>
manag ing</w>
fig ure</w>
review ing</w>
M any</w>
ro ad</w>
Fo reign</w>
amen ded</w>
d ro
C ha
ab les</w>
B y</w>
2 8</w>
weak nesses</w>
Inter ior</w>
invol ving</w>
communic ations</w>
o ffered</w>
produc ed</w>
in d</w>
lit tle</w>
n or
los ses</w>
lead ership</w>
c le</w>
er ous</w>
pro duce</w>
condi tion</w>
inspec tion</w>
fun d
hist or
hosp it
through out</w>
enti ty</w>
tran sition</w>
testim ony</w>
jurisdic tion</w>
s. In</w>
re imbur
c r
C I
fo re
appro aches</w>
reven ues</w>
Inter net</w>
over se
set t
suppor ted</w>
w a
s eri
op en</w>
Af ter</w>
Techn ology</w>
Comm and</w>
T r
at ure</w>
M embers</w>
w at
tem por
occ ur</w>
f ile</w>
ex change</w>
R I
Protec tion</w>
consum ers</w>
M il
particip ate</w>
F S
stud ent</w>
H uman</w>
rel ative</w>
In spec
E valu
ed ly</w>
de fici
mis si
S imil
L a
i. e.</w>
du ty</w>
character istics</w>
c ause</w>
En viron
regul ators</w>
DO T</w>
jo b</w>
vehic le</w>
ne g
- 3
d on
Ag ricul
publis hed</w>
sp o
an s
r ati
pe ti
ex port</w>
S outh</w>
6 0
projec ted</w>
comp uter</w>
N N
Th us</w>
aud iting</w>
mon th</w>
consum er</w>
Cont rol</w>
opportun ity</w>
recor d</w>
8 0</w>
Rec overy</w>
mis sion
s em
appropri ated</w>
ut es</w>
allow s</w>
ation .
A T
occ up
h ir
e —
go ods</w>
i a</w>
other wise</w>
N o</w>
beg inning</w>
A b
manag ed</w>
sci enti
vo te</w>
Y ear</w>
C ur
man datory</w>
aw arded</w>
C an
ev ents</w>
ap pe
inspec tions</w>
cour ts</w>
Re qui
res ent
is ms</w>
competi tion</w>
F CC</w>
finan cing</w>
F H
199 3</w>
j usti
circum stances</w>
ar ms</w>
Al l</w>
S ur
ic ity</w>
B L
A A</w>
de gre
chang ed</w>
St and
provid er</w>
er r
under standing</w>
la un
o .go
Res pon
con fi
super vis
Oper ations</w>
of f</w>
con tain</w>
esp eci
introduc ed</w>
cle an
A M
ga o.go
lim ate</w>
at ell
cl ari
offic er</w>
fac t</w>
Is su
com man
assess ing</w>
part ners</w>
l ate</w>
comple x</w>
Mexic o</w>
m id
p rec
2 6</w>
restric tions</w>
reduc tions</w>
l ement</w>
ne y</w>
t an
especi ally</w>
contr ast</w>
challeng e</w>
investig ations</w>
accur acy</w>
certi fication</w>
sel f-
l ess
Rep resent
eng ine
all eg
pre sid
to o</w>
ru p
agre e</w>
al ties</w>
promo te</w>
particip ating</w>
vers ity</w>
U. S</w>
n om
y ear
Mar ine</w>
num bers</w>
agricul tural</w>
carri ers</w>
en try</w>
Ag encies</w>
S uch</w>
suppl e
quali fied</w>
Tra de</w>
ar rang
Indi an</w>
am a</w>
incenti ves</w>
FB I</w>
anti cip
volun t
Afgh an
respon ses</w>
f arm</w>
employ er</w>
B ack
Chi ef</w>
arg o</w>
view s</w>
pro fit</w>
exam ined</w>
impro vement</w>
i sts</w>
secur ities</w>
A no
form al</w>
man ner</w>
h er</w>
1 7
Ano ther</w>
m em
A S
ra p
vol um
ic k
E ach</w>
import ance</w>
ra il</w>
exam in
an im
ac t
lo ad</w>
success ful</w>
wh ose</w>
cl in
au th
ran ts</w>
Cont act</w>
car ry</w>
c all</w>
determin ation</w>
2 7</w>
por ted</w>
ill ance</w>
mak ers</w>
E con
m et
facilit ate</w>
as signed</w>
M ore</w>
un able</w>
thre ats</w>
li gh
larg ely</w>
categ ory</w>
oc cur
ex ecu
j udici
M on
announ ced</w>
pr inci
Econ om
V i
to ols</w>
retur ns</w>
rec overy</w>
en ed</w>
integr ated</w>
adop ted</w>
ow ners</w>
al ization</w>
P re
E l
investig ation</w>
fil ed</w>
suggest ed</w>
is on</w>
F l
lead ing</w>
ge ograph
rol es</w>
2 5
om en</w>
sh ow</w>
experienc ed</w>
res erv
im medi
incorpor ated</w>
C ri
air ports</w>
hol ding</w>
ow ned</w>
su ffici
origin al</w>
plac ement</w>
il d
Per form
interview s</w>
2 9</w>
N F</w>
dis ability</w>
un d
R is
indic ate</w>
Af ric
el l</w>
at tribu
del ays</w>
deploy ment</w>
achiev ing</w>
e f
re al</w>
G e
sc r
ag ing</w>
Afghan istan</w>
b rea
continu ing</w>
l etter</w>
att acks</w>
custom ers</w>
Em ploy
applic ants</w>
exam ine</w>
al ed</w>
N C
communic ation</w>
perman ent</w>
201 7</w>
B e
En g
so cial</w>
A -
pr ise</w>
tran sit</w>
am s</w>
qu e</w>
ac compl
N I
compl y</w>
ex ports</w>
per mit</w>
op ini
C ub
regul ar</w>
Di vision</w>
We b</w>
on ce</w>
ph ase</w>
reg istr
hou se</w>
intere sts</w>
ab use</w>
Back ground</w>
NN SA</w>
sen si
3 5</w>
si m
r ural</w>
hospit als</w>
discus sion</w>
pati ents</w>
Par t</w>
pre par
J ap
mortg age</w>
h ar
c ro
um s</w>
Th at</w>
month ly</w>
chem ical</w>
asp ects</w>
GAO /
ri c</w>
Rus sia</w>
rec ru
sk ills</w>
si an</w>
T er
x ed</w>
amend ment</w>
s atell
S m
formul a</w>
wor ld</w>
maxim um</w>
l ment</w>
me et
d one</w>
c ard</w>
con sequ
ch ers</w>
we b
s even</w>
Ne ed
h y
ch i
T S
moder n
B ased</w>
clos ed</w>
cl ear
dis closure</w>
S ci
small er</w>
th res
cy cle</w>
exc eed
fil es</w>
c are
f ed
tr ust</w>
O C</w>
objec tive</w>
ab s
DO J</w>
re ments</w>
underst and</w>
aud its</w>
5 00</w>
Ch alleng
d ow
app ear</w>
comb at</w>
1 4
targ ets</w>
ol lar</w>
staff ing</w>
gran tees</w>
t t
n or</w>
H as</w>
set ting</w>
T E
spo ke</w>
me an
use ful</w>
fir e</w>
s on</w>
B ene
L A</w>
encoura ge</w>
H S
cl early</w>
j ob
expan ded</w>
relation ship</w>
ay ed</w>
viol ations</w>
t eam</w>
te e</w>
as surance</w>
f ers</w>
imp acts</w>
con tains</w>
hol der</w>
Kore a</w>
custom er</w>
ill ing</w>
. To</w>
. We</w>
u str
serv ation</w>
in struc
er n</w>
Con trac
reg ard</w>
su sp
Euro pe
fac tor</w>
y —
up dated</w>
C H
tas k</w>
ris k
L eg
N RC</w>
c s</w>
us er</w>
ac knowledg
R P</w>
c ros
c ore</w>
D P</w>
ag ents</w>
F rom</w>
de duc
passeng er</w>
pl ants</w>
n ings</w>
b on
US PS</w>
ul ts</w>
u su
repres ent</w>
A ir
n ur
remain s</w>
ac e
off en
ir man</w>
main taining</w>
F M
ti vity</w>
recommen d</w>
f all</w>
a ined</w>
inter agency</w>
Y or
pl ant</w>
Ac qui
tr al</w>
Ac knowledg
att ention</w>
recogn ized</w>
seri ous</w>
pre pared</w>
ep h
comm od
str u
meth od</w>
comple tion</w>
Associ ation</w>
meet ings</w>
rele ased</w>
of -
co operation</w>
ec tion</w>
F i
beg in</w>
Ar e</w>
distric ts</w>
ti tle</w>
en sion</w>
ex plo
air port</w>
discre tionary</w>
mechan isms</w>
ai l</w>
mat ch
h ead</w>
b l
am e</w>
concer ning</w>
C are</w>
ec ting</w>
m p
pres ented</w>
pre me</w>
com ment</w>
H igh
mon g</w>
ill ustr
e p</w>
pa ren
alloc ation</w>
7 5</w>
6 5</w>
lo g
is tic</w>
tradi tional</w>
bas eline</w>
avi ation</w>
wel fare</w>
Hou sing</w>
er t</w>
con stra
A mong</w>
e fficient</w>
ff ic</w>
govern mental</w>
mak es</w>
Perform ance</w>
I A
r at
vis its</w>
ques tion
re new
err ors</w>
R E
selec tion</w>
sum mar
R ev
prin cip
flexi bility</w>
l er</w>
classi fied</w>
re e</w>
Simil arly</w>
h u
see k</w>
N O
ter nal</w>
go od</w>
An aly
tra ffic
d ollar</w>
T w
o red</w>
oc r
an a</w>
Yor k</w>
m er
G rou
Re view</w>
it ec
TA NF</w>
loc k</w>
continu es</w>
employ ed</w>
Su preme</w>
cri me</w>
ev ent</w>
g o</w>
fi g</w>
Europe an</w>
ex po
wh ol
Cor por
in stances</w>
su sta
C ir
T S</w>
B usin
manufac turing</w>
rel ease</w>
u tions</w>
c argo</w>
enrol lment</w>
us h</w>
recei p
bran ch</w>
p ack
taxpay er</w>
ac ade
ph arm
Fo od</w>
im migration</w>
Ch il
and /
Im ple
t ations</w>
ut y</w>
cont am
adv oc
tran sp
Bo th</w>
call s</w>
can di
Th ere
succ ess</w>
de al
buil d</w>
impro per</w>
Fo rest</w>
Saf ety</w>
de pen
M e
D C</w>
suppl i
charg ed</w>
aul t</w>
subsequ ent</w>
num erous</w>
fol i
re al
j ust</w>
exp and</w>
mod els</w>
dis pos
centr al</w>
Acknowledg ments</w>
tren ds</w>
trac king</w>
ext ended</w>
e ment
w .
fe wer</w>
Agricul ture</w>
to g
organiz ational</w>
en ough</w>
evalu ations</w>
Fun ding</w>
tog ether</w>
and/ or</w>
ad a</w>
1 -
4 -
as set</w>
stor age</w>
F is
w age</w>
A mend
an al
c limate</w>
decre ase</w>
I R
respon ding</w>
se l</w>
Americ a</w>
ond ary</w>
7 0</w>
li sts</w>
inst ead</w>
m its</w>
Evalu ation</w>
O p
hist ory</w>
Syst ems</w>
ww w.
po int
anc ing</w>
cour se</w>
deploy ed</w>
O IG</w>
servic em
s tim
surve illance</w>
du plic
coordin ate</w>
con ference</w>
fin ance</w>
tempor ary</w>
fil ing</w>
pi p
- to-
BL M</w>
comp u
pre dic
a round</w>
en n
e ight</w>
Ve terans</w>
al ways</w>
E S
an du
There fore</w>
oper ators</w>
ti se</w>
avo id</w>
tri bal</w>
ist er</w>
job s</w>
or andu
subsi di
pro mis
li ability</w>
borrow ers</w>
A P
suffici ently</w>
o -
ho od</w>
Per s
surve ys</w>
C RS</w>
w omen</w>
ess ential</w>
descri be</w>
at h</w>
fi el
sel f</w>
d y</w>
Environ mental</w>
199 0</w>
ac i
ill ed</w>
comb ined</w>
func tion</w>
hosp ital</w>
512 -
Or ganiz
der i
Fis cal</w>
pro sec
poin ted</w>
alloc ated</w>
to p</w>
cl ass</w>
C ustom
clean up</w>
P r
is hed</w>
s anc
dis p
pen sion</w>
con struc
por ting</w>
T A</w>
mat ter</w>
i um</w>
citiz ens</w>
degre e</w>
Re form</w>
w ar</w>
ha vi
veri fy</w>
En forcement</w>
199 2</w>
it ors</w>
ex ternal</w>
lead ers</w>
electr icity</w>
tu al</w>
show ed</w>
an e</w>
manufactu rers</w>
Ass ess
k ers</w>
equ al</w>
or ts</w>
defici encies</w>
re r</w>
hom es</w>
sc en
schedul ed</w>
commit ment</w>
Mil itary</w>
exam ples</w>
spec ies</w>
fail ure</w>
3 -
i m</w>
f all
id ed</w>
encoura g
posi tive</w>
k et</w>
pl y</w>
Issu es</w>
ent ered</w>
incenti ve</w>
sou ght</w>
In cre
proper ties</w>
d enti
.... ....
con nec
st ain
spec tive</w>
Col um
bur den</w>
fin d</w>
.. .</w>
/ /
N P
Ha ve</w>
dec line</w>
perform ing</w>
R a
b arri
F S</w>
l and
un cer
th s</w>
C M
f light</w>
acc ept
volum e</w>
sal e</w>
With out</w>
t ro
v ary</w>
de si
in jur
ul tim
du ties</w>
im ports</w>
fe ed
att ack</w>
Rel ated</w>
en act
8 -
pl i
supple mental</w>
ta il
Em erg
prior iti
su stain
N M
T ex
pl ease</w>
fi re
consid ering</w>
correc t</w>
g ation</w>
comp et
ation s.
4 5</w>
main tained</w>
exc ess</w>
it able</w>
L etter</w>
1 6
enti t
m ing</w>
to ol</w>
influ ence</w>
W A</w>
Th ose</w>
Econom ic</w>
h tt
intere sted</w>
charg es</w>
volunt ary</w>
U.S. -
consist ently</w>
enti re</w>
detail s</w>
public ly</w>
t al</w>
targ eted</w>
ob taining</w>
— the</w>
bi o
app ears</w>
j u
ca used</w>
high est</w>
adv ance</w>
In surance</w>
net works</w>
exper tise</w>
A gre
overse as</w>
exam ination</w>
vo ting</w>
di ff
pan el</w>
ati cally</w>
deb ate</w>
D ru
C oll
Busin ess</w>
as sign
substanti ally</w>
evalu ating</w>
allow ing</w>
D S
Pro ject</w>
Inter nal</w>
Ac tion</w>
aw ards</w>
expl ained</w>
sc ale</w>
I I
negoti ations</w>
invol ve</w>
eg u
A R
res erve</w>
arch itec
B i
corpor ate</w>
ann ing</w>
docu mented</w>
O P</w>
f arm
exp ec
up gra
tra ffic</w>
concer ned</w>
profes sional</w>
Reg i
t op
In tel
ver si
le ase</w>
Cen sus</w>
f ill</w>
ther n</w>
red ness</w>
aw are</w>
ex ist</w>
ven d
some times</w>
se ment</w>
p are</w>
res ear
premi um</w>
l ab
reas on</w>
grow ing</w>
P at
C re
inform ed</w>
sec ondary</w>
represent ative</w>
at ures</w>
identi fication</w>
c anc
Acqui sition</w>
mo ve</w>
sensi tive</w>
regi ons</w>
pre pa
L E
mil li
li ving</w>
cu it</w>
be havi
Pro duc
noti ce</w>
agg reg
k a</w>
5 -
judici al</w>
read iness</w>
ol der</w>
r un
as k</w>
demonstr ate</w>
sha red</w>
re pe
Sup port</w>
kno w</w>
P S
N D
house holds</w>
port foli
contribu ted</w>
sec tors</w>
f air</w>
Ta x</w>
confl ict</w>
In stitute</w>
mo bil
altern atives</w>
assum ptions</w>
cont ing
pl us</w>
s our
tel eph
M eth
Wor ld</w>
Over sight</w>
W TO</w>
complain ts</w>
over ty</w>
l ity</w>
k er</w>
gi ve</w>
follow ed</w>
fi gh
constitu tional</w>
inci dents</w>
Grou p</w>
Challeng es</w>
Pri v
polic e</w>
ep ing</w>
fol low</w>
reli ef</w>
geograph ic</w>
Inspec tor</w>
te ach
en able</w>
contribu te</w>
fo ster</w>
Rec om
deci sion
work load</w>
M S
v .</w>
inst ance</w>
se ver
P ak
ap er</w>
t s.
rou t
hear ing</w>
dev ices</w>
b and</w>
htt p</w>
3 4</w>
st re
Se veral</w>
ter rit
ear nings</w>
adequ ately</w>
vi r
up date</w>
integr ation</w>
pre pare</w>
I V
Cen tral</w>
l eng
con fir
selec t</w>
K ey</w>
po or</w>
pa rent</w>
At tor
invest ors</w>
yst s</w>
administ ered</w>
l am
to day</w>
achiev ed</w>
aren cy</w>
d r
m ic</w>
B order</w>
ta int
D ep
see king</w>
Cha irman</w>
jurisdic tions</w>
h and</w>
4 1</w>
exc eed</w>
enact ment</w>
resid ents</w>
l et
P B
ta il</w>
G re
ali ens</w>
dam age</w>
N on
Inv est
ste p</w>
uni que</w>
respon dents</w>
scr ub
re fer
dow n
G P
c ity</w>
C O</w>
adv anced</w>
Addi tional</w>
correc tive</w>
2 -
f av
Ch ang
Ob ama</w>
li min
engine ering</w>
B ush</w>
repa ir</w>
g aps</w>
trans ferred</w>
4 2</w>
de ad
Administr ator</w>
discus sions</w>
at e-
Intel ligence</w>
mechan ism</w>
for ward</w>
G i
ar ti
pl an
defin e</w>
pol l
do ing</w>
pl om
Sur ve
decl ined</w>
Tra ining</w>
streng then</w>
re forms</w>
Colum bia</w>
al th
ro r</w>
ic it</w>
scrub bed</w>
Jap an</w>
Stand ards</w>
educ ational</w>
0 -
princip al</w>
Ge or
car r
amend ments</w>
traffic king</w>
qu ick
ser ies</w>
nor m
Sec ond</w>
believ ed</w>
W ater</w>
ur ric
physici ans</w>
spons ors</w>
mem orandu
Emerg ency</w>
adjust ed</w>
ra ise</w>
B A</w>
u n</w>
accoun ted</w>
es .The</w>
mar i
al ities</w>
serv ing</w>
expo sure</w>
3 3</w>
it y-
taint y</w>
n ar
priv acy</w>
// www.
pr ic
de pos
scienti fic</w>
princi ples</w>
ific ation</w>
y ed</w>
h ard
respec tively</w>
diffe rence</w>
m edic
Corpor ation</w>
D em
sh ort</w>
repres ented</w>
Po st
structu res</w>
indic ators</w>
depend ent</w>
arg ue</w>
de fic
si tions</w>
distribu ted</w>
in form</w>
scen ari
L im
N F
resol ve</w>
institu tion</w>
fail ed</w>
Tex as</w>
work ed</w>
er y</w>
guid e</w>
FT C</w>
analy ze</w>
ser vers</w>
tur n</w>
st ations</w>
comm and</w>
Ris k</w>
popul ations</w>
f a
Ch in
Recom mend
sum mary</w>
exemp t</w>
chec k</w>
initi ated</w>
sid y</w>
test ed</w>
I ts</w>
r ating</w>
gra du
de st
dispos al</w>
gre at
frequ ently</w>
dis crimin
i red</w>
cri sis</w>
I D
cont ext</w>
pre vention</w>
ut ri
f ea
high ly</w>
ma il
Res ources</w>
ow nership</w>
P s</w>
IC E</w>
addres ses</w>
incre as
suppl ies</w>
p overty</w>
bec ame</w>
paren ts</w>
20 0</w>
Ira q
I M
compar ison</w>
P R
mark et
cont ent</w>
demonstr ation</w>
off set</w>
Int egr
hir ing</w>
te red</w>
CD C</w>
work er</w>
str ong</w>
teleph one</w>
auth or</w>
no te</w>
Custom s</w>
Co ordin
Eff orts</w>
anal ysts</w>
ail y</w>
detec tion</w>
ke eping</w>
2 ,
Tw o</w>
pen alties</w>
modi fied</w>
H E
establish ment</w>
Strateg y</w>
peri ods</w>
elec ted</w>
sec ure</w>
ad es</w>
exc ept</w>
ent al</w>
con centr
integr ity</w>
int ent</w>
acknowledg ed</w>
broad er</w>
mil est
initi ally</w>
e able</w>
or id
R ic
ra il
chang ing</w>
it self</w>
Initi ative</w>
usu ally</w>
long -
i de
p age</w>
att or
s co
b ar
dis ease</w>
argu ed</w>
19 6
low- income</w>
3 2</w>
In st
Dep uty</w>
Commun ity</w>
actu ally</w>
P e
deta il</w>
polic y
V ir
Sci ence</w>
rel ating</w>
ea v
rema ined</w>
buil dings</w>
de pending</w>
dis abilities</w>
b ul
commis sion</w>
collabor ation</w>
Fl orid
anticip ated</w>
mitig ate</w>
O ver</w>
Rel ations</w>
gao.go v</w>
gran ted</w>
l ying</w>
nation wide</w>
R o
n ine</w>
re fu
wh y</w>
en ting</w>
ard less</w>
pl ay</w>
c tion</w>
C a
N uclear</w>
Fac il
re fin
e e</w>
control led</w>
sur face</w>
adjust ments</w>
ur ation</w>
do m</w>
c li
stoc k</w>
in nov
vi a</w>
eg e</w>
commit ted</w>
c ards</w>
missi le</w>
ac compan
te ams</w>
W ar</w>
wh om</w>
un authorized</w>
high way</w>
vari ed</w>
f ar</w>
rou ght</w>
invol vement</w>
Ad v
il legal</w>
sub sidy</w>
sugg est</w>
part ner</w>
mit ting</w>
cam pa
P P</w>
pres ence</w>
quick ly</w>
nur sing</w>
con ver
descri ption</w>
ban king</w>
cy ber
viol ation</w>
stat e-
F A</w>
remo val</w>
ful l-
insu red</w>
ad verse</w>
reac hed</w>
proper ly</w>
premi ums</w>
sequ ently</w>
at ories</w>
Th e
sup ports</w>
D esp
tr ics</w>
y outh</w>
part ner
n ear</w>
cre ating</w>
Gi ven</w>
Dru g</w>
ap point
_ _
direc tion</w>
Desp ite</w>
gener ated</w>
opini on</w>
6 -
d aily</w>
ab led</w>
servicem embers</w>
C la
3 8</w>
ain s</w>
equi val
f le
Florid a</w>
elimin ate</w>
report edly</w>
F ra
de p
ing .
La w</w>
exerc is
mat ters</w>
coun t</w>
Requi rements</w>
R E</w>
bo dy</w>
w ild
chec ks</w>
N .</w>
n ations</w>
oper ated</w>
viol ence</w>
it or</w>
fe rences</w>
road s</w>
Cub a</w>
un clear</w>
ed -
op s</w>
D -9
ea si
f ron
evalu ated</w>
com ing</w>
situ ation</w>
H e</w>
oblig ated</w>
exerc ise</w>
applic ant</w>
C i
Strateg ic</w>
saf e</w>
Analy sis</w>
Uni on</w>
identi fies</w>
weap on</w>
saf egu
U se</w>
- level</w>
out reach</w>
benefici ary</w>
ro un
C ost</w>
o od</w>
neg ative</w>
3 6</w>
new ly</w>
em a
statut es</w>
tim s</w>
quar ter
coordin ated</w>
h abil
c at
ar di
Ira n</w>
fac ed</w>
M ic
2 4
in put</w>
hu man
insu rers</w>
inci dent</w>
thres hold</w>
barri ers</w>
G lobal</w>
ur ban</w>
Con cl
St ar
S ch
b ing</w>
tr um</w>
dis sem
in ated</w>
per mits</w>
N E
CO M</w>
Speci al</w>
confl ic
pre ci
in ts</w>
D el
F HA</w>
ass er
elec om
Wh at</w>
pat ent</w>
collec ting</w>
lic ense</w>
valu es</w>
ound ation</w>
si mul
prohib ited</w>
plo y</w>
c ol
tra ding</w>
beg un</w>
ci pl
ve ter
presid ential</w>
physici an</w>
cop e</w>
- -</w>
complet ing</w>
con n
po st-
it es</w>
2 8
indic ates</w>
as sist
sanc tions</w>
equ ity</w>
li qui
industri es</w>
FY200 9</w>
tic le</w>
Amend ment</w>
stitu tion</w>
subsequ ently</w>
quar ter</w>
ard ous</w>
pre -
mitig ation</w>
ultim ately</w>
3 7</w>
lear ned</w>
ob served</w>
Leg isl
v est
sh e</w>
enh anced</w>
7 -
Attor ney</w>
over see</w>
lit er
d ou
mark eting</w>
advis ory</w>
si vely</w>
U. N.</w>
carri er</w>
S cho
FY201 0</w>
Rev en
ar ch</w>
s .S
Ad d
M at
men tioned</w>
transp arency</w>
tra vel
C P</w>
fin ding</w>
ex ual</w>
Vir g
A S</w>
FY200 8</w>
h eav
Ac c
pre ven
R i
ga in</w>
del ay</w>
dec ided</w>
recor ded</w>
Proc ess</w>
O E
aren ess</w>
ext ensive</w>
star t</w>
pre limin
9 5</w>
Can ada</w>
high- risk</w>
Author ity</w>
Accoun ting</w>
len ders</w>
T R</w>
re si
purch ases</w>
9 -
di g
s w
El ec
abs ence</w>
wai ver</w>
architec ture</w>
ru n</w>
excep tion</w>
anc y</w>
v enti
con tain
tak es</w>
tri bes</w>
p ul
D o
registr ation</w>
infl ation</w>
respec tive</w>
p e</w>
ad ver
thre at
ru ption</w>
elecom mun
Sub committee</w>
si zed</w>
recei ves</w>
decre ased</w>
s a
re medi
medi a</w>
ud es</w>
se arch</w>
in stru
- up</w>
l ined</w>
autom ated</w>
G rant</w>
cho ose</w>
attemp t</w>
cop y
invol ves</w>
5 5</w>
h ab
fac es</w>
tri c</w>
modern ization</w>
web site</w>
l at
de ath</w>
In du
difficul ty</w>
acade mic</w>
ri g
st ance</w>
Gu id
FY201 2</w>
H M
jec ted</w>
prelimin ary</w>
con curred</w>
expan sion</w>
subsi dies</w>
determin es</w>
hom eland</w>
F ran
mis sing</w>
enter prise</w>
4 8</w>
repres ents</w>
portfoli o</w>
conc ept</w>
compar able</w>
dis cipl
Sen ator</w>
O I
ari an</w>
o x
al ing</w>
ob servers</w>
fra me</w>
satell ite</w>
Pers onnel</w>
clin ical</w>
regul ated</w>
impl ications</w>
flo od</w>
prec ed
ke ep</w>
i ther</w>
M edical</w>
im posed</w>
advant age</w>
histor ical</w>
AC A</w>
men ting</w>
n it
ag ain</w>
Ad vis
S R
sol d</w>
direc tors</w>
T im
tas ks</w>
out come</w>
ema king</w>
s ession</w>
W S</w>
memorandu m</w>
it ory</w>
P ay
as ka</w>
ment s.
industri al</w>
contribu tion</w>
fed erally</w>
descri bes</w>
in de
F am
tion ing</w>
f low</w>
et ro
vis a</w>
t .
trans action</w>
s oci
m ag
e- based</w>
calcul ated</w>
tw o-
Chin ese</w>
D -
re place</w>
ma in</w>
produc ers</w>
ali d</w>
G ul
b on</w>
cre ation</w>
consequ ences</w>
al ize</w>
5 4</w>
l d
co de</w>
le y</w>
bec om
li st
de man
satis fac
cur ren
gener ation</w>
l ost</w>
cap it
4 4</w>
arrang ements</w>
question n
ea red</w>
199 1</w>
ga p</w>
inter im</w>
Meth odology</w>
Iraq i</w>
discre tion</w>
Pl anning</w>
lea ve</w>
P aci
M E
fo rec
confi dence</w>
view ed</w>
excl u
we igh
en forc
oper ative</w>
sci ence</w>
re conc
de po
i al</w>
aff ili
c e
4 6</w>
inspec tors</w>
labor atory</w>
necess arily</w>
recipi ent</w>
FY201 3</w>
spec trum</w>
In c
direc tor</w>
difficul ties</w>
ch es</w>
reg ardless</w>
em ed</w>
Paci fic</w>
ti v
purch ased</w>
pat ter
serv ations</w>
H R
lo ad
fra mes</w>
ac ci
er ation</w>
4 7</w>
recogn ize</w>
di plom
ap p</w>
v ac
st ation</w>
less ons</w>
C R</w>
2 7
pon ents</w>
Par t
del eg
Ma j
Afric a</w>
Com mission
under lying</w>
al li
w est</w>
quarter ly</w>
commit ments</w>
p aper</w>
enrol led</w>
ast ers</w>
P E
uncer tainty</w>
m emb
ur g
bal ances</w>
Agre ement</w>
refer r
y i
author ize</w>
them sel
relation ships</w>
vi sit</w>
V HA</w>
techn i
f our
issu ing</w>
ev ol
rel ations</w>
S cope</w>
M O
A re
Gul f</w>
shi f
reg ist
adjust ment</w>
re es</w>
er ror</w>
accur ately</w>
resol ved</w>
coordin ating</w>
ne ither</w>
Sm all</w>
wid ely</w>
quali fy</w>
parti ally</w>
f it
z es</w>
mar k</w>
N T
aff ecting</w>
3 9</w>
dem ocr
St ud
air lines</w>
Indi a</w>
E E
G rants</w>
aw areness</w>
excl uded</w>
author izes</w>
ot a</w>
increas ingly</w>
pay ing</w>
im mig
re placement</w>
datab ases</w>
8 5</w>
dis bur
so red</w>
Need ed</w>
elecommun ications</w>
6 1</w>
Reven ue</w>
determin ations</w>
Cap ital</w>
rou gh
De part
Author ization</w>
bu s</w>
prescri ption</w>
ver ification</w>
du l
remo ved</w>
immedi ate</w>
uti lity</w>
Su per
ri es</w>
li fe
detec t</w>
re m
con sent</w>
haz ardous</w>
est ern</w>
Pak istan</w>
A C</w>
certi fied</w>
R s</w>
mil es</w>
broad c
s end</w>
re f
re st
rea d</w>
pro portion</w>
separ ately</w>
vic tims</w>
me trics</w>
gener ate</w>
Inst ead</w>
con vic
ud ic
laun ch</w>
Is ra
suppli ers</w>
t ari
tr uc
or al</w>
meth od
per mitted</w>
li ghts</w>
ev ent
pro mp
Cir cuit</w>
sp end</w>
ext end</w>
se en</w>
see ing</w>
li fer
cro p</w>
ad d</w>
themsel ves</w>
success fully</w>
stand ardi
le ft</w>
resear chers</w>
s ent
c ust
S ou
p ped</w>
l ending</w>
def end
consul tation</w>
Invest ment</w>
Represent ative</w>
en ds</w>
manag er</w>
categ or
Hou se
wh ere
bil ateral</w>
E stim
sett lement</w>
rati o</w>
statisti cal</w>
g et</w>
sec tions</w>
respon ded</w>
Recommend ations</w>
comp are</w>
bri ef
govern ance</w>
fu els</w>
FY201 1</w>
there by</w>
in king</w>
cred its</w>
ac ting</w>
S C</w>
b ring</w>
sol di
I denti
des p
f low
eng aged</w>
install ation</w>
Bu t</w>
modi fications</w>
collec tions</w>
house hold</w>
coun sel
v acc
ag enc
desp ite</w>
M ember</w>
el ement</w>
refl ected</w>
k rup
Cen ters</w>
ack ed</w>
DO L</w>
se g
wel l-
NO AA</w>
comb ination</w>
Offic es</w>
re tain</w>
in curred</w>
fu sion</w>
match ing</w>
Respon se</w>
Tr ust</w>
rol l</w>
P u
un employment</w>
repres enting</w>
back ground</w>
vi ation</w>
jec ts</w>
cost ly</w>
h ere</w>
In dividu
B ur
del ayed</w>
associ ations</w>
lo o
b y
n e</w>
E ven</w>
W est</w>
— and</w>
appro ve</w>
6 6</w>
t al
carri ed</w>
fund a
cen sus</w>
Cont inu
O ut
Imple mentation</w>
sam pl
G er
elec tions</w>
consum ption</w>
labor atories</w>
let ters</w>
U sing</w>
s exual</w>
con ven
Assess ment</w>
non profit</w>
demonstr ated</w>
j un
re tail</w>
comm only</w>
coun ties</w>
man date</w>
199 0s</w>
Res ults</w>
Eff ec
trans fers</w>
appl ies</w>
le -
empha sis</w>
expendit ure</w>
constra ints</w>
FY201 4</w>
E st
aggreg ate</w>
th ing</w>
fe atures</w>
adop tion</w>
Post al</w>
compl ex
Par ti
po sts</w>
Ter ror
reimbur sement</w>
Par k</w>
FD IC</w>
ow er</w>
reli gi
ver th
verth eless</w>
m arg
protec ted</w>
h er
Rus sian</w>
enrol le
end ar</w>
T ai
expan ding</w>
M c
bil li
R ule</w>
pip eline</w>
rou gh</w>
incorpor ate</w>
budg ets</w>
M D</w>
protec ting</w>
. As</w>
eli hood</w>
part nership</w>
CF A</w>
origin ally</w>
clos ely</w>
Virg ini
equival ent</w>
coun ty</w>
no tes</w>
min ority</w>
Ex am
5 1</w>
aff ord
m erg
4 3</w>
with draw
anti -
Wor k
hel ped</w>
5 ,000</w>
con servation</w>
Bene fits</w>
es. In</w>
or d</w>
ali sts</w>
Com b
ear ned</w>
S al
Co de</w>
R eli
identi ty</w>
On ce</w>
coun ted</w>
i an</w>
Col om
prepa redness</w>
dist inc
ch ed</w>
budg etary</w>
chec k
re habil
RA C</w>
z a</w>
sel l</w>
aim ed</w>
en force</w>
e es</w>
mid -
7 6</w>
6 2</w>
ag no
Pl ans</w>
For ces</w>
c ou
am b
FY200 6</w>
t ext</w>
krup t
V I</w>
pri me</w>
cap ture</w>
qu es</w>
suggest s</w>
spon sored</w>
p p
ali en</w>
pro per</w>
deli ver
pursu ant</w>
res c
re -
F R
sur vi
eng age</w>
ap ter</w>
G C</w>
lik elihood</w>
US C
w i
writ ing</w>
off ers</w>
Gen erally</w>
P an
o ts</w>
Offic er</w>
structu red</w>
it y
N H
pen alty</w>
FY201 5</w>
trans mission</w>
fi xed</w>
estim ating</w>
mat ch</w>
T RI
th ou
R educ
Or der</w>
Con solid
fall s</w>
whol e</w>
m er</w>
cl ass
candi dates</w>
appropri at
ris e</w>
exp ect</w>
dev ice</w>
cont acted</w>
speci fy</w>
Al aska</w>
pos t</w>
lifer ation</w>
corpor ations</w>
gro s
sol ic
ach ing</w>
s. To</w>
b en
schedul es</w>
in sufficient</w>
clo sures</w>
man dated</w>
im pa
Ac ti
bi ological</w>
H ow</w>
reli ed</w>
defic it</w>
cl es</w>
al one</w>
Co sts</w>
consolid ated</w>
Cur rent</w>
tra de
author izing</w>
utri tion</w>
li a
st age</w>
b rought</w>
consolid ation</w>
ir e</w>
oblig ation</w>
n ever</w>
a -
lin ked</w>
Accoun tability</w>
ir s</w>
sh ore</w>
form ed</w>
f el
H CFA</w>
Qu ality</w>
feed back</w>
acc ept</w>
C y
AI DS</w>
T ri
Inv estig
gro un
expl an
vulner abilities</w>
appe als</w>
SS I</w>
passeng ers</w>
institu tional</w>
deli vered</w>
conting ency</w>
Th ir
appl ying</w>
F ol
B ra
ph one</w>
low ing</w>
b ir
1 10
C -
milest ones</w>
4 9</w>
odi c</w>
Mis si
campa ign</w>
Tai w
on line</w>
T ask</w>
adj udic
exp ed
arm ed</w>
car bon</w>
m en</w>
5 2</w>
shi ft</w>
P P
Maj or</w>
dem ic</w>
de dic
install ations</w>
fis h</w>
FY200 7</w>
lo b
exi sts</w>
partner ships</w>
ne ys</w>
h ing</w>
exceed ed</w>
Pri or</w>
S an</w>
m al
D oc
3 00</w>
ca uses</w>
5 3</w>
Est ablis
streng th
fle et</w>
G o
m ut
elec tric</w>
rul emaking</w>
201 8</w>
over seeing</w>
it em</w>
C ity</w>
sub mission</w>
C le
in adequate</w>
u gg
cap able</w>
R em
in al</w>
es sions</w>
In frastructure</w>
establish es</w>
Uni versity</w>
Represent atives</w>
en ess</w>
Acti vities</w>
v ou
measu red</w>
prepar ing</w>
h our</w>
clari fy</w>
im pose</w>
complain t</w>
judg es</w>
B e</w>
mo ving</w>
gros s</w>
a .
struc turing</w>
IN S</w>
st ability</w>
A viation</w>
S P
de ter
lo ok</w>
5 6</w>
de emed</w>
plac ing</w>
d ang
str ation</w>
nam ed</w>
el er
adver ti
cros s-
Wh ite</w>
en ni
buil t</w>
s ending</w>
7 0
Sp ace</w>
re stor
mo tion</w>
pl ain
off ense</w>
b ly</w>
ac cred
N G
hear ings</w>
Virgini a</w>
L og
I l
ag o</w>
C er
Con sequently</w>
di agno
leng th</w>
flo or</w>
A D
Geor gi
ac commod
as h</w>
ff s</w>
Organiz ation</w>
pris on
plac es</w>
b id
it y.
F I
it arian</w>
proced ure</w>
t rol
s ound</w>
govern ing</w>
C I</w>
G DP</w>
cal endar</w>
- wide</w>
L abor
pris es</w>
der ly</w>
bon ds</w>
den ied</w>
bi om
ori al</w>
measu rement</w>
expen sive</w>
Ch ar
organiz ed</w>
stre am
farm ers</w>
FA R</w>
anim al</w>
ca p</w>
1 ,000</w>
assum ed</w>
Vi et
tra in</w>
F O
examin ations</w>
CI O</w>
c ell
adop t</w>
Eng ine
ra ble</w>
T I
CB O</w>
w ages</w>
air e</w>
T re
venti onal</w>
ret ention</w>
guaran tee</w>
ag ent</w>
8 0
Regi onal</w>
E ast</w>
ren tal</w>
ment .
exemp tion</w>
el ing</w>
minim ize</w>
h un
proceed ings</w>
renew able</w>
peti tion</w>
eri al</w>
ic it
Surve y</w>
N et
divi sion</w>
cri mes</w>
ap pointed</w>
v alid</w>
evi sion</w>
n one</w>
ed om</w>
utili zation</w>
Or ders</w>
acc es
3 ,
injur y</w>
krupt cy</w>
exp ects</w>
in he
b om
su spec
believ es</w>
F SA</w>
be half</w>
Taiw an</w>
Euro pe</w>
U S</w>
liter ature</w>
purch asing</w>
restor ation</w>
expec tations</w>
li ti
hom e
issu ance</w>
ren ti
m a</w>
carr ying</w>
Impro ve</w>
gra de</w>
consist ency</w>
urric ane</w>
NA TO</w>
hel ping</w>
confir med</w>
reg im
5 8</w>
acti vi
y l
. If</w>
en ci
vers ely</w>
ow ner</w>
claim ed</w>
Fun ds</w>
dat ing</w>
Americ ans</w>
techni ques</w>
. R
wee k</w>
consider able</w>
agricul ture</w>
utili ties</w>
investig ative</w>
Ci vil</w>
interpre tation</w>
g as
tra ined</w>
sever e</w>
fac ing</w>
elimin ated</w>
E li
ri gh
enter ing</w>
dec ade</w>
G s</w>
Cre dit</w>
m ach
P M
short -term</w>
accept able</w>
per s</w>
ali a</w>
FY201 6</w>
U p
emerg ing</w>
pursu e</w>
Ab out</w>
Ac tions</w>
M ea
6 4</w>
se as
discrimin ation</w>
c able</w>
appropri ately</w>
Pr acti
ac king</w>
lin k</w>
C ar
pro liferation</w>
non federal</w>
ment ary</w>
Con sum
Advis ory</w>
administ er</w>
icit ly</w>
S O
op tim
pric ing</w>
— a</w>
adv ice</w>
ti t
p ress</w>
R ul
Nav al</w>
Am tra
t on
entit led</w>
st op</w>
con sen
Con cer
pres sure</w>
deli ver</w>
sub stance</w>
stit utes</w>
CH IP</w>
cont ro
con taining</w>
c ent
ro w</w>
noti fication</w>
Im p
pos si
occur s</w>
oc k</w>
por ters</w>
am p</w>
broad band</w>
M id
Ar ticle</w>
ep tion</w>
v ess
foc uses</w>
P D
immedi ately</w>
ei ved</w>
peri odic</w>
ili ation</w>
ac res</w>
b lock</w>
c ut</w>
frequ ency</w>
comb at
def ault</w>
Amtra k</w>
analy zing</w>
Th rough</w>
dec ades</w>
rough ly</w>
sol utions</w>
C ould</w>
N s</w>
veter an</w>
5 7</w>
receip t</w>
care er</w>
judg e</w>
prohi bi
od y</w>
mar ks</w>
co al</w>
Sch ed
f ur
For m</w>
vend ors</w>
behavi or</w>
S hi
dis e
me ets</w>
acqui sitions</w>
An n
FY200 5</w>
el iness</w>
pos sibility</w>
ben ch
Concl usions</w>
B ase</w>
regist ered</w>
comman ds</w>
re vi
F P
Impro vement</w>
F PS</w>
or ation</w>
wea ther</w>
NI H</w>
Ne vertheless</w>
bal lo
H ist
t elecommunications</w>
medi an</w>
cha in</w>
selec ting</w>
process ed</w>
con ventional</w>
in consistent</w>
excep tions</w>
out lined</w>
olog ies</w>
z er
Chil d</w>
aw ay</w>
ci ties</w>
e -</w>
B ri
N R
Ac ade
enc ing</w>
situ ations</w>
aff ir
E D</w>
ext ension</w>
th ous
protec tions</w>
ad ap
bu y
diff er</w>
accoun table</w>
o dic
tre ated</w>
Regul atory</w>
IS T</w>
OS HA</w>
FH WA</w>
ni tion</w>
z on
independ ently</w>
P reven
E C</w>
appe al</w>
T ur
6 3</w>
uni on</w>
mortg ages</w>
follow -up</w>
S y
sp eed</w>
in qu
we ight</w>
rat ings</w>
u red</w>
PB GC</w>
trol ler</w>
func tional</w>
Lo an</w>
it an</w>
e .The</w>
6 7</w>
Re ad
projec tions</w>
licen sing</w>
d le</w>
certi fic
e ous</w>
se ments</w>
J udici
app eared</w>
acc eler
str ong
pres ents</w>
FY201 7</w>
complex ity</w>
sal aries</w>
conduc ts</w>
sh e
et ting</w>
Cur rently</w>
ad ul
vulner able</w>
L ev
Re ports</w>
Acc ess</w>
En h
spons or</w>
ar ying</w>
T R
program ming</w>
A N
lo g</w>
connec tion</w>
compl ic
accompl ish</w>
z one</w>
ed y</w>
l acked</w>
pe ace
norm al</w>
vess els</w>
dedic ated</w>
acqui re</w>
I -
ar b
hab it
Georgi a</w>
questionn aire</w>
Tre at
serv es</w>
D EA</w>
s cri
sco res</w>
enc ed</w>
- of-
P ur
Con stitution</w>
alleg ed</w>
air line</w>
defini tions</w>
a ver
enc oun
se x</w>
pack age</w>
resid ential</w>
in ations</w>
commod ity</w>
W IC</w>
mo del
Commission er</w>
mari time</w>
st ages</w>
dead line</w>
m ess
conflic ts</w>
N ations</w>
inter oper
fiel ds</w>
de al</w>
instruc tions</w>
uni ons</w>
2. 5</w>
dec ide</w>
G S
refl ects</w>
conn ected</w>
pay roll</w>
co operative</w>
government wide</w>
l ers</w>
he alth
er s.
regul arly</w>
m atic</w>
restric ted</w>
vulner ability</w>
ut ting</w>
C V
C RA</w>
fre ight</w>
U r
m ass</w>
Ri ver</w>
4 00</w>
s .</w>
re jected</w>
ab le
administ ering</w>
memb ership</w>
di ed</w>
comp eting</w>
tri al</w>
7 7</w>
alloc ations</w>
expen se</w>
E -
A sia</w>
ast ro
tel evision</w>
FA S</w>
mea suring</w>
int eg
m uni
char ter</w>
challeng ing</w>
ann u
the -
co des</w>
j ustice</w>
for -
clos ing</w>
prepar ation</w>
U N</w>
Doc u
w illing</w>
lim iting</w>
consul t
funda mental</w>
lo t
groun ds</w>
ori ented</w>
A F
commer ce</w>
disp ute</w>
consid ers</w>
reserv es</w>
curren cy</w>
USC IS</w>
P RC</w>
promo ting</w>
counsel ing</w>
follow s</w>
7 00</w>
W il
p u
guaran te
G H
Con gres
soldi ers</w>
igh ts</w>
wee ks</w>
Log istics</w>
sp ou
me an</w>
s or
non compliance</w>
mar ri
cre di
d g
With in</w>
pro por
receip ts</w>
2 9
great est</w>
depen d</w>
depen ds</w>
w ant</w>
A P</w>
produc ing</w>
dis asters</w>
no t
full- time</w>
S am
th west</w>
ship ments</w>
r ation
out standing</w>
surve yed</w>
Comp troller</w>
rang ed</w>
7 8</w>
off ering</w>
copy right</w>
de d
re in
expl ain</w>
Parti cip
Coun ty</w>
cop y</w>
Chil dren</w>
log istics</w>
ad ults</w>
pol itan</w>
peri odic
mi x</w>
dou b
gao.go v
M DA</w>
7 1</w>
h n</w>
Int roduc
ici p
Re porting</w>
sour cing</w>
. .</w>
licen ses</w>
ro y
exam ining</w>
Is lam
satisfac tion</w>
s qu
wor ld
Ar med</w>
borrow er</w>
activi ti
co h
ligh tly</w>
s ea
adequ acy</w>
w ish</w>
tim eliness</w>
remo ve</w>
regul ate</w>
st ay</w>
wat ers</w>
D R
ex changes</w>
ad ding</w>
V IS
Reg arding</w>
Scho ol</w>
expl icitly</w>
ign ment</w>
gre at</w>
B as
Over all</w>
In come</w>
under taken</w>
main tains</w>
N um
C T
in complete</w>
examin ers</w>
in qui
wa it</w>
h in
contribu tors</w>
d ay
ast ing</w>
judg ment</w>
el ed</w>
v arying</w>
Lo cal</w>
bro k
Depart ments</w>
dis abled</w>
appro ving</w>
C SA</w>
jun ction</w>
advant ages</w>
trans port</w>
ation —
1. 5</w>
tri gg
termin ation</w>
IM F</w>
ur y</w>
im port</w>
empha sized</w>
sampl ing</w>
policy makers</w>
bo ok</w>
Pat rol</w>
CA RE</w>
deri ved</w>
y oun
modi fy</w>
H. R
g ains</w>
chem ic
h ard</w>
in direct</w>
b ond</w>
re ference</w>
mo graph
rais ing</w>
per spective</w>
on .
B RAC</w>
ra y</w>
enrolle es</w>
exper t</w>
A ri
K at
refu ge
min ing</w>
acti v
Com pli
g n
fire arms</w>
op posed</w>
cli ents</w>
Preven tion</w>
attemp ted</w>
M ul
read ily</w>
trans formation</w>
sam ples</w>
Cle an</w>
some what</w>
perform anc
min e</w>
la ys</w>
hir e</w>
comm odi
associ ation</w>
il s</w>
Fol lowing</w>
s. We</w>
Op portun
particip ant</w>
promo tion</w>
depo t</w>
ti veness</w>
exercis es</w>
divi ded</w>
consi sts</w>
missi les</w>
st ating</w>
eg es</w>
7 2</w>
F re
leg i
le ases</w>
T i
D B
experienc es</w>
retur ned</w>
k in
ing u
consider ations</w>
ag enci
t end</w>
revis e</w>
prohib it</w>
targ eting</w>
Le ad
recru it
pe di
calcul ate</w>
x es</w>
defin es</w>
profes sion
contrac ted</w>
sur g
Pro gress</w>
Th ree</w>
religi ous</w>
attribu ted</w>
Ob jec
rang ing</w>
on- site</w>
effici ently</w>
astro ph
op position</w>
Com man
speci alists</w>
A L
per mission</w>
er to</w>
sc ore</w>
mean ing
11 0</w>
Regul ation</w>
t acti
re fer</w>
co tics</w>
iz ations</w>
li ve</w>
B al
w it
ea k</w>
Bu il
Add ress</w>
ve -
N IST</w>
S T
consen sus</w>
bo ards</w>
bo o
hi red</w>
mon etary</w>
le verage</w>
h aps</w>
preven ting</w>
star ting</w>
sm ugg
in ely</w>
Wor k</w>
Compli ance</w>
cho ice</w>
Guid ance</w>
istr y</w>
es tion</w>
rec re
com promis
flow s</w>
w ent</w>
elimin ating</w>
hy dro
reason ably</w>
3 9
Chang es</w>
stoc k
pe er</w>
V ari
ay ing</w>
Al tern
Fin ance</w>
re au
dra w</w>
periodic ally</w>
res sed</w>
out patient</w>
5 9</w>
satis fied</w>
th y</w>
P H
CA P</w>
- I
wat er
re payment</w>
commodi ties</w>
ban kruptcy</w>
plain ti
justi fication</w>
O A</w>
ed —
corpor ation</w>
Im migration</w>
ra d
defend ant</w>
pers on
Cont rol
S elected</w>
Pu erto</w>
Kore an</w>
est ate</w>
legi tim
ar re
sol ely</w>
Comm ittees</w>
s lightly</w>
l acks</w>
dise ases</w>
c ru
acti vely</w>
modi fication</w>
ac ies</w>
classi fication</w>
Thir d</w>
Consolid ated</w>
for th</w>
eth eless</w>
tor ate</w>
Ap pe
f air
af ter
cover ing</w>
human itarian</w>
t ory</w>
volun te
deman ds</w>
independ ence</w>
T -
duplic ation</w>
design ation</w>
4 8
d ingly</w>
w in
Indu stry</w>
head s</w>
House -
ans wer</w>
acqui red</w>
FY200 4</w>
discus ses</w>
tren d</w>
pre ference</w>
10 .
Elec tr
v als</w>
sha res</w>
Ari zon
defin ing</w>
L ou
t esti
hand ling</w>
ar ity</w>
Un der
Kat r
Jo hn</w>
stake holder</w>
recog nition</w>
inv o
ch er</w>
N ative</w>
mean ing</w>
particip ated</w>
an ia</w>
dig ital</w>
pl at
rec over</w>
P ot
sim ply</w>
il ing</w>
FE RC</w>
commen ted</w>
manufactu rer</w>
ab road</w>
gran tee</w>
adj ust</w>
thre e-
b ases</w>
up dates</w>
The ir</w>
app rais
20 20</w>
high ligh
Stat us</w>
reli es</w>
mobil e</w>
R ights</w>
D eci
l ateral</w>
chemic als</w>
cul ar</w>
war ran
w ind</w>
Au str
n am</w>
an y
pay s</w>
tro ops</w>
2 6
decision -
cyber security</w>
contribu ting</w>
cr ude</w>
rehabil itation</w>
ou l
198 0s</w>
R T</w>
H IV
M ari
represent ation</w>
or able</w>
wor ds</w>
Viet nam</w>
R S
eng ag
e wide</w>
7 4</w>
//www. gao.gov
top ics</w>
ess ing</w>
yl um</w>
negoti ated</w>
ali tion</w>
produc tivity</w>
man ual</w>
chi ef</w>
Afric an</w>
f al
Ur ban</w>
suppl ement</w>
communic ate</w>
ad o</w>
di an</w>
alloc ate</w>
7 3</w>
Proc ed
N at
att le</w>
rout ine</w>
pow ers</w>
hel ps</w>
e an</w>
cont ents</w>
tion .
M T
re structuring</w>
Arizon a</w>
D om
ish ing</w>
Ca rol
b y-
H aw
r ing
h arm</w>
commis sion
wai vers</w>
pos es</w>
appoint ment</w>
susta ined</w>
W at
etro le
GAO -
rap id</w>
e ing</w>
mun icip
sol ution</w>
rout inely</w>
frau dul
tran si
pro mul
guaran tees</w>
mil it
198 8</w>
liti gation</w>
terror ists</w>
direc ts</w>
a ining</w>
R T
vo ted</w>
leg ally</w>
accompan ied</w>
ro om</w>
mo ved</w>
Rec ent</w>
e. In</w>
inter state</w>
easi ly</w>
dec la
Mexic an</w>
tu res</w>
h ost</w>
e- mail</w>
attor neys</w>
High way</w>
F RA</w>
AT F</w>
t ention</w>
u sive</w>
coll ege</w>
pa th
F ul
D I</w>
en za</w>
guarante ed</w>
post al</w>
priv il
d ge</w>
D LA</w>
ga ve</w>
aud itors</w>
clear ance</w>
fea sibility</w>
H el
For t</w>
R ob
w an
p sy
p ass</w>
Priv ate</w>
s /
roun ding</w>
im ported</w>
en -
cy ber</w>
.. ..</w>
pil ots</w>
integ rate</w>
radi o
ne ar
m or
prohib its</w>
de mograph
Katr ina</w>
L os</w>
decl ar
proceed s</w>
C D</w>
pass age</w>
Accor dingly</w>
t in
ch ose</w>
pre ad</w>
concl usion</w>
re aching</w>
el derly</w>
Part nership</w>
perc eived</w>
Au dit</w>
star ted</w>
ob servations</w>
offen ses</w>
dri ven</w>
dam ages</w>
Sen ior</w>
fron t</w>
thous ands</w>
dom in
thir d-
rel ess</w>
technolog ical</w>
Eli gi
jo int
cu ts</w>
pro fits</w>
desi red</w>
br ary</w>
statisti cs</w>
ol ine</w>
milli ons</w>
prob ability</w>
oper ates</w>
ass y</w>
in comes</w>
g ri
teach ers</w>
fl u
attemp ts</w>
quali fying</w>
S i
10 9
patter ns</w>
oc k
Sched ule</w>
ph ases</w>
scenari os</w>
licen sed</w>
vari ation</w>
vo tes</w>
Res ol
priv ati
A ra
con g
cost- effective</w>
supervis ory</w>
leg acy</w>
amen d</w>
an -
versi ties</w>
execu tion</w>
investig ators</w>
H igh</w>
al ig
E s</w>
Appe als</w>
incl usion</w>
wor th</w>
world wide</w>
posi t</w>
D R</w>
contam ination</w>
ther ap
I TC</w>
v ail
ne igh
N A</w>
achiev ement</w>
h ind</w>
B OP</w>
low est</w>
Terror ism</w>
es pread</w>
a side</w>
2 3
w are</w>
er ies</w>
nam es</w>
trac t</w>
b all
N G</w>
hi b
enh anc
um p</w>
ment ally</w>
la p</w>
S ol
sp read</w>
In cl
198 9</w>
to x
ast al</w>
acc ru
sch em
re tained</w>
meaning ful</w>
Un til</w>
F uture</w>
w ill
ation -
— that</w>
del inqu
cri tic
s ay</w>
sh el
stand ard
........ ........
8 3</w>
un likely</w>
st abil
re ve
enter prises</w>
system atic</w>
ris ing</w>
law ful</w>
P B</w>
mar ine</w>
is ons</w>
four th</w>
cover s</w>
encourag ed</w>
Lim ited</w>
bene fit
6 8</w>
mut ual</w>
B a
revi sions</w>
pan demic</w>
noti fy</w>
B IA</w>
ch ron
probl em
haz ards</w>
ec h</w>
poll ution</w>
con stitute</w>
O thers</w>
ro se</w>
bu reau</w>
Wor king</w>
Ra ther</w>
Colom bia</w>
sal ary</w>
conc ep
susta in</w>
F WS</w>
es tions</w>
F oundation</w>
etrole um</w>
see ks</w>
occur ring</w>
comman ders</w>
pro fici
enh ancing</w>
car d
Practi ces</w>
— to</w>
p ic
cat astroph
the ft</w>
inter ven
wee k
Are a</w>
d a</w>
li abilities</w>
possi bly</w>
or dered</w>
ti ble</w>
lo od</w>
An ti
fed er
,0 0
subsidi zed</w>
F ed
identi fi
yi eld</w>
short ages</w>
Ric o</w>
combat ant</w>
au g
tu red</w>
afford able</w>
compet e</w>
ut on
7 9</w>
mo vement</w>
At l
p ile</w>
gro und
Col or
satell ites</w>
met ro
dis close</w>
cour ses</w>
A B
op h
an es</w>
Mul ti
W H
acti on
4 ,
fi gu
electron ically</w>
se arch
practi cal</w>
HIV /
es. To</w>
allow ance</w>
Eng lis
w ard
l y
en tr
m os
spec tives</w>
long- standing</w>
acqui ring</w>
Techn ical</w>
vo ter</w>
quanti ty</w>
8 8</w>
mo tor</w>
re placed</w>
P al
vari ables</w>
tim ing</w>
b ol
pre sum
Facil ities</w>
tion s.
ret ro
Sy ri
radi o</w>
ace u
Rul es</w>
sp e
un certain</w>
elec t</w>
r .</w>
tion ality</w>
standardi zed</w>
ch ing</w>
sist ent</w>
satis fy</w>
ine es</w>
Need s</w>
B lock</w>
Administr ative</w>
gas oline</w>
di versity</w>
de ploy</w>
TRI CARE</w>
k ind</w>
ch apter</w>
speci alized</w>
su it</w>
foc using</w>
st able</w>
Employ ment</w>
reli ance</w>
inform al</w>
bu reau
NS F</w>
de ferred</w>
dist ingu
M P</w>
v oc
cam e</w>
es sive</w>
Mis sion</w>
supervis ors</w>
ak es</w>
198 6</w>
Ta x
sustain able</w>
candi date</w>
Work force</w>
the red</w>
ti ous</w>
eth n
compar ing</w>
W ar
mag nit
con st
Mar y
profession als</w>
n avi
Mo der
LE As</w>
Fam ily</w>
B et
Consum er</w>
request ing</w>
pres erv
H urricane</w>
prin ted</w>
6 00</w>
regim e</w>
Isra el</w>
P ower</w>
nov ation</w>
R L
Color ado</w>
bo x</w>
Commun ications</w>
h or
event ually</w>
pro pri
speci alty</w>
N S</w>
Sup ple
nation ally</w>
hom eless</w>
d ental</w>
cul tural</w>
inter c
ran dom</w>
d uration</w>
t y-
so on</w>
S um
D C
2 ,000</w>
po ol</w>
uni form</w>
Cl int
il ed</w>
re t</w>
wild life</w>
tot aling</w>
de struction</w>
wid espread</w>
pre cl
decision- making</w>
promul g
super vision</w>
resid ent</w>
direc tive</w>
hi m</w>
inter vention</w>
er o
emb ly</w>
scenari o</w>
pos s
Carol ina</w>
decla red</w>
pos ing</w>
investig ate</w>
depart ment
bor ne</w>
5 -year</w>
brea k</w>
Oper ation</w>
anim als</w>
dis rup
4 th</w>
CA A</w>
ation s—
8 1</w>
ful fill</w>
f ell</w>
centr alized</w>
O T</w>
T yp
radi ation</w>
dis charge</w>
off -
Labor atory</w>
vo ters</w>
Fran k</w>
back log</w>
exp ired</w>
Reli ef</w>
Ex change</w>
.S ome</w>
metro politan</w>
Par ty</w>
safegu ards</w>
US TR</w>
reti rees</w>
C am
in ary</w>
par k</w>
v es
commer ci
512- 60
s ense</w>
su lar</w>
lea ving</w>
J udg
out lays</w>
sur rounding</w>
as ylum</w>
Sec ur
M I</w>
En ter
1 50</w>
B ar
M al
S ing
HIV/ AIDS</w>
st ly</w>
habit at</w>
fraudul ent</w>
en sions</w>
Dem ocr
Un like</w>
I HS</w>
form ally</w>
dra f
deal ers</w>
Afgh an</w>
opini ons</w>
Coun sel</w>
pre ferred</w>
engag ement</w>
wast e
Produc ts</w>
magnit ude</w>
adul t</w>
con fig
4 9
proc eed</w>
brea k
re fers</w>
re pos
pu ts</w>
Clint on</w>
highligh ted</w>
T est</w>
. A</w>
sh or
A OC</w>
-I m</w>
Ex -Im</w>
con junction</w>
r ace</w>
becom es</w>
eng ine</w>
Mar ket</w>
Cla use</w>
al lot
vi sibility</w>
is tic
direc tives</w>
s —</w>
P ric
al izing</w>
le ments</w>
NF IP</w>
show ing</w>
E ar
W he
frequ ent</w>
app ing</w>
Re ti
Cl ass</w>
multi lateral</w>
ext re
dr inking</w>
enti ve</w>
joint ly</w>
St .</w>
inter view</w>
control ling</w>
Pot ential</w>
M H
figu res</w>
war ning</w>
assist ed</w>
12 .
Ph ase</w>
fam ili
f ut
8 7</w>
9 /
tr ine</w>
sur plus</w>
rea m</w>
com pris
ul ative</w>
su m</w>
Min ister</w>
laun ched</w>
Se c</w>
Acade my</w>
V is
inten ds</w>
lim itation</w>
b ound</w>
call ing</w>
S av
acces sible</w>
W ild
deduc tion</w>
ap pa
loc ate</w>
Mary land</w>
Net work</w>
grow n</w>
cl ause</w>
H ar
f at
Sen ators</w>
id ly</w>
di verse</w>
am es</w>
en house</w>
substan ces</w>
pre emp
off s</w>
L ong
la y
FY200 3</w>
n utrition</w>
R ol
valid ation</w>
acc o</w>
H am
s ors</w>
loc alities</w>
Imp act</w>
ti s
os yst
tr ue</w>
enni al</w>
An d</w>
f illed</w>
St atisti
ver sus</w>
u re
inten sive</w>
poll ut
at or
mil k</w>
Fra mework</w>
C R
uc c
treat y</w>
gi ving</w>
con version</w>
ne u
lead er</w>
Pro per
Legisl ative</w>
Con vention</w>
fer ring</w>
be hind</w>
it er
Provi sions</w>
et ric</w>
offen ders</w>
quanti ties</w>
f ail</w>
inv est</w>
E g
ques tioned</w>
p un
injur ies</w>
vend or</w>
collec ts</w>
ur an
list ing</w>
inter medi
fe et</w>
lear ning</w>
deri v
bi d</w>
lin o
adverti sing</w>
Englis h</w>
in struction</w>
ex it</w>
Il lino
sid es</w>
un necessary</w>
tion ers</w>
complet eness</w>
cha ir</w>
al ist</w>
uni versities</w>
SE A</w>
short falls</w>
Ger many</w>
citiz en</w>
sy n
mo du
F L
edg e</w>
over lap</w>
pro spective</w>
where as</w>
de a
summar izes</w>
calcul ation</w>
in eligible</w>
iti es.
ef s</w>
. For</w>
out put</w>
e di
li ber
hun dre
O ff
Inc .</w>
ex tra
o v
broad ly</w>
dissem in
de tention</w>
Be fore</w>
thir ds</w>
d a
F MS</w>
se a</w>
al s.
//www.gao.gov .If</w>
cro ps</w>
accompan ying</w>
t s—
lev el
attor ney</w>
ti n</w>
t ou
fin alized</w>
cor ruption</w>
arrang ement</w>
bor n</w>
arb it
rul ing</w>
D avi
se es</w>
11 1</w>
coun ts</w>
M i
upgra des</w>
liqui d
f lights</w>
11 3</w>
ju ana</w>
econom ies</w>
il lion</w>
class es</w>
min or</w>
ar is
L aw
pl ayed</w>
heav ily</w>
dri vers</w>
Hist or
tot aled</w>
life -
M ass
C an</w>
198 0</w>
in patient</w>
O CC</w>
st ored</w>
radio active</w>
cle an</w>
negoti ating</w>
Con ference</w>
load s</w>
figh ting</w>
Contrac t</w>
stim ul
ha m
8 4</w>
Bet ween</w>
- 1</w>
vi de
cha m
V II</w>
Coordin ation</w>
ti le</w>
ti ci
i tion</w>
exped ited</w>
L and</w>
finan ced</w>
th at
ret y</w>
Ann ual</w>
oper ator</w>
accept ance</w>
a z
rail roads</w>
in k</w>
g en</w>
descri bing</w>
per spectives</w>
oun ded</w>
ar ise</w>
t ons</w>
Individu als</w>
B ill</w>
soci ety</w>
e stration</w>
collabor ative</w>
rap idly</w>
Illino is</w>
__ __
per haps</w>
histor ically</w>
On ly</w>
assum e</w>
T o
si ves</w>
autom atically</w>
De b
monit ors</w>
alleg ations</w>
J er
advoc acy</w>
Stand ard</w>
Objec tives</w>
recru iting</w>
scienti sts</w>
termin ated</w>
ver sions</w>
6 9</w>
K ing
g all
continu ous</w>
allow ances</w>
wan ted</w>
protec tive</w>
prioriti ze</w>
et t
ed s</w>
Priv acy</w>
one- third</w>
B G</w>
Pro jects</w>
8 2</w>
gi ves</w>
bu y</w>
uton ium</w>
R ural</w>
fo rest</w>
announ c
tor al</w>
fra g
f th</w>
H ome</w>
Con servation</w>
11 2</w>
testi fied</w>
si zes</w>
indic ating</w>
risk -based</w>
vis as</w>
res our
FM CSA</w>
An y</w>
strength ening</w>
dest ro
asser ted</w>
T ot
GH G</w>
C FTC</w>
id es</w>
in m
P enn
um ul
under ing</w>
i e</w>
thres holds</w>
par am
sa ve</w>
broadc ast</w>
Bra z
Direc torate</w>
tre at</w>
emis sion</w>
FY200 2</w>
gener ating</w>
O R
Integr ated</w>
separ ation</w>
ma p</w>
W estern</w>
legitim ate</w>
influ enza</w>
T e
third- party</w>
knowledg eable</w>
W IA</w>
D od
Can a
sum mer</w>
pres ent
le asing</w>
compu ters</w>
b arg
O reg
st ream</w>
ch os
Supple mental</w>
sel ling</w>
N W</w>
F ed</w>
develop ments</w>
restric t</w>
Gre at</w>
assign ment</w>
b in
Star t</w>
thou ght</w>
Do es</w>
B l
9 6</w>
fav or</w>
pro spec
gro w</w>
exemp tions</w>
prohibi tion</w>
rec over
execu tives</w>
NH TSA</w>
s l
exist ence</w>
co -
ni bus</w>
su its</w>
diffe renti
system atically</w>
beg ins</w>
H A
ad or</w>
House- passed</w>
wi reless</w>
1. 2</w>
is ol
inde x</w>
f ru
E S</w>
11 .
tax -
negoti ate</w>
f oundation</w>
V al
ti li
calcul ations</w>
accommod ate</w>
por tions</w>
exp ress</w>
im mun
ma ster</w>
c au
. According</w>
it oring</w>
econom ically</w>
Proc urement</w>
mo stly</w>
per mitting</w>
interoper ability</w>
ti m</w>
st ac
esti ci
D s</w>
ub lic
R econ
E P</w>
valid ate</w>
proced ural</w>
I R</w>
CS E</w>
ro b
democr acy</w>
sub missions</w>
ow ed</w>
const ant</w>
8 6</w>
hundre ds</w>
Reg ister</w>
tari ff</w>
v aries</w>
ell ec
Introduc tion</w>
re construction</w>
Moder n
oc ca
sy l
F light</w>
8 9</w>
war rant</w>
D D</w>
Non etheless</w>
ess entially</w>
rail road</w>
G S</w>
orig in</w>
ic ation</w>
uran ium</w>
recruit ment</w>
rec ord
An g
F our
form ing</w>
un known</w>
Sta ff
territ ories</w>
comp act</w>
st op
pi ec
pe ace</w>
divi sions</w>
M P
w s</w>
ach us
acc umul
noti ces</w>
fea sible</w>
Mass achus
um -
survi v
el o
B S
syl v
se y</w>
co astal</w>
reti red</w>
illustr ates</w>
ic op
ic k</w>
Penn sylv
man i
contro versi
Direc t</w>
et er</w>
streng th</w>
OS D</w>
comm it</w>
P repa
Gu ide</w>
Dis aster</w>
referr als</w>
occup ations</w>
l ining</w>
Massachus et
i si
character ized</w>
s on
M CC</w>
Austr alia</w>
la g</w>
budg eting</w>
vacc ine</w>
Oreg on</w>
the ast</w>
Exam ples</w>
in tr
Nat ural</w>
10 ,000</w>
tim e-
dri ver</w>
Effec tive</w>
hand le</w>
forc ed</w>
administ ers</w>
cor ro
Gu am</w>
C NM
viol ent</w>
re authorization</w>
Sen ate-
Y et</w>
excl usion</w>
invent ories</w>
heav y</w>
demograph ic</w>
Com prehensive</w>
reconc iliation</w>
prescri bed</w>
at ric</w>
3 5
sing le-
m ic
ellec tual</w>
cre w</w>
Read iness</w>
al le
V er
initi ate</w>
r ated</w>
pharm aceu
Cla im
em ploy</w>
Ra di
min al</w>
al iz
tu ally</w>
innov ation</w>
Haw ai
summar ized</w>
reac tors</w>
b ound
t oc
lin ks</w>
V BA</w>
M or
Coun ter
9/ 11</w>
gre w</w>
ill ness</w>
challeng ed</w>
gre enhouse</w>
Cana dian</w>
parti al</w>
appropriat e.
F P</w>
princi ple</w>
Concer ns</w>
pr int</w>
Lou isi
y cl
Massachuset ts</w>
In de
p ace</w>
GP RA</w>
contam inated</w>
Reduc tion</w>
s low</w>
disp utes</w>
W ast
impa ir
ex ec
year -
Provi de</w>
Ban ks</w>
immig rant</w>
haz ard</w>
ass ault</w>
ration ale</w>
cul ture</w>
two- thirds</w>
ing —
fe ren
st ore</w>
stri ke</w>
F CS</w>
HR SA</w>
method ologies</w>
A l</w>
interpre ted</w>
i or
W ea
suspec ted</w>
prosec ution</w>
Con sid
exist ed</w>
T s</w>
IA EA</w>
indic ator</w>
decl ining</w>
al ter</w>
Stud y</w>
compli ant</w>
en comp
el se
bil ling</w>
up dating</w>
stoc ks</w>
dep th</w>
rec ur
P res
spe ech</w>
mari juana</w>
Tot al</w>
fal se</w>
dis agreed</w>
waste water</w>
tw ice</w>
tim ber</w>
Secret aries</w>
S TE
Electr on
s ity</w>
cont end</w>
10 0,000</w>
sub committee</w>
resol ving</w>
Incre ased</w>
no ting</w>
inf ring
appoint ments</w>
Eg yp
9 8</w>
mark ed</w>
al ign</w>
manag es</w>
len der</w>
end ang
B S</w>
bri ef</w>
al og
FY201 8</w>
CF O</w>
T V</w>
hel p
ed a</w>
oul try</w>
rel ate</w>
oun ds</w>
m al</w>
Judici ary</w>
Cir cular</w>
Louisi ana</w>
Ap plic
ish ment</w>
ga ther</w>
proceed ing</w>
per taining</w>
Environ ment</w>
advant aged</w>
A .</w>
rele ases</w>
referr al</w>
encourag ing</w>
Pri me</w>
don ors</w>
cho ices</w>
m ation</w>
off shore</w>
docu menting</w>
valu able</w>
j e
speci fies</w>
rel ation</w>
i ding</w>
correc tly</w>
Mic h
e as
co t
C op
sequ estration</w>
198 7</w>
chos en</w>
Ma e</w>
ste ad
Pennsylv ania</w>
calcul ating</w>
distribu te</w>
b loc
ad versely</w>
Ch em
Q a
billi ons</w>
draw n</w>
D FAS</w>
si zing</w>
ut in
sol v
man dates</w>
issu ers</w>
mat ure</w>
cont acts</w>
s li
over view</w>
Mon itoring</w>
St at</w>
coun cil</w>
certi fy</w>
3 ,000</w>
vic tim</w>
lat ter</w>
expl icit</w>
Prepa redness</w>
sp ac
9 9</w>
allow able</w>
min ent</w>
veri fied</w>
ful ness</w>
capit a</w>
St u
er s—
sav ing</w>
coun ter</w>
Rep ublic</w>
advoc ates</w>
it i</w>
seas on</w>
S S</w>
deb ts</w>
C C
illustr ate</w>
ec osyst
continu ity</w>
pro gres
ob stac
suppli er</w>
exam ines</w>
dis position</w>
di min
W ere</w>
dea ths</w>
Oper ational</w>
deli ber
We ap
u el
cre ates</w>
repos itory</w>
nom ination</w>
12 0</w>
F r
depos itory</w>
Num ber</w>
B etter</w>
8 00</w>
Con struction</w>
30 1</w>
smugg ling</w>
T arg
So vie
doc trine</w>
dist ance</w>
ag gres
Min istry</w>
or ities</w>
under take</w>
co l</w>
G en</w>
sub scri
arti cles</w>
5 ,
f ri
deci ding</w>
cri tici
utili zed</w>
ed .The</w>
B road
1. 1</w>
reac tor</w>
re l</w>
cor responding</w>
milli on
dis closures</w>
Legisl ation</w>
mi xed</w>
remo te</w>
deal ing</w>
t ative</w>
construc t</w>
chil d
V AM
c ent</w>
T VA</w>
par ag
ro c
fi res</w>
su red</w>
great ly</w>
susp ension</w>
rang es</w>
U s</w>
eg et
sub section</w>
form at</w>
anti c</w>
9 1</w>
Sam o
co alition</w>
Mich ig
attribu table</w>
sub mitting</w>
Pay ments</w>
Dod d-
O hi
ves sel</w>
Con tribu
B I
Li f
2 50</w>
pl utonium</w>
M us
sec ret
benefici al</w>
mis sed</w>
st ress</w>
autom atic</w>
Dodd- Frank</w>
pr ud
t s-
compu ter
re organization</w>
mos ph
U AS</w>
Man ufac
attemp ting</w>
purch as
diplom atic</w>
au di
muni tion</w>
end or
1 3.
gener ic</w>
str ing
bir th</w>
f r
Sovie t</w>
enforc ing</w>
scr utin
Pol ice</w>
expen ded</w>
tr ust
public ation</w>
g ar</w>
int enti
CNM I</w>
A G
w estern</w>
becom ing</w>
claim ants</w>
A vail
noti fied</w>
ag end
ga thered</w>
H C
Is lands</w>
rou tes</w>
out -of-
k -
A ut
Sh ould</w>
O il</w>
mo tiv
compar isons</w>
fav orable</w>
administr ators</w>
King dom</w>
air y</w>
ball istic</w>
O S</w>
innov ative</w>
SE S</w>
commis sions</w>
Air port</w>
a sive</w>
Fre edom</w>
B ran
ther ing</w>
U I</w>
AC s</w>
om s</w>
Presid ential</w>
whol es
ri d
H ead</w>
E R</w>
Proper ty</w>
to col</w>
Comp any</w>
dro pped</w>
min utes</w>
US -
c es.
Re ported</w>
Michig an</w>
sec uring</w>
construc ted</w>
complic ated</w>
com posed</w>
ar cotics</w>
p estici
wa iting</w>
territ ory</w>
T F</w>
program matic</w>
O F
D A
else where</w>
Th re
D en
H.R ept</w>
D ue</w>
tow ards</w>
A id</w>
susp ended</w>
cas elo
s si
g er</w>
ab ling</w>
198 5</w>
sk illed</w>
la undering</w>
S ign
dis par
I F
bri g
V o
servic e-
pursu ing</w>
k ra
di e</w>
P ort
Cont acts</w>
fac ts</w>
effici encies</w>
SS Ns</w>
z uel
V ene
v il
Cub an</w>
tacti cal</w>
A Q
Missi ssi
struc tural</w>
bul k</w>
t ol
stat ewide</w>
def en
design ing</w>
B el
announ ce</w>
descri ptions</w>
Regi on</w>
nation als</w>
fi x
and -
Bi o
program s.
MA P</w>
cor respon
remo ving</w>
catastroph ic</w>
integr ating</w>
upgra de</w>
el ev
NS IA
high- level</w>
D es
sp ir
arg e</w>
Vene zuel
so ve
vou chers</w>
cust odi
hard ware</w>
rati os</w>
hel icop
tain ment</w>
U kra
reduc es</w>
preci ation</w>
us age</w>
deploy ing</w>
Ch ic
5 0,000</w>
ab and
nar row
F s</w>
9 0
install ed</w>
figh ter</w>
program .
dis count</w>
threat ened</w>
aff ects</w>
N B
con firm</w>
Progra m
profici ency</w>
ch an
substan tive</w>
government -
Cer tain</w>
valid ity</w>
id s</w>
bo dies</w>
a rent</w>
pre gn
Ad j
instru ments</w>
arti cul
9 7</w>
— which</w>
Modern ization</w>
spou se</w>
di ver
ear ing</w>
Proced ures</w>
Cri tical</w>
re b
du ci
maxim ize</w>
Ex c
h on
an ese</w>
p oultry</w>
cum ulative</w>
real istic</w>
9 4</w>
model ing</w>
Chang e</w>
larg e-
St e
an ol</w>
cust ody</w>
vest ock</w>
tr illion</w>
man ned</w>
aw arding</w>
A sian</w>
11 4</w>
excl uding</w>
Ha iti</w>
or gan
im prison
G row
uc tu
B M
qu al
p etroleum</w>
512-60 00</w>
1. 3</w>
scre en
et e</w>
vers al</w>
sol e</w>
contam in
t ables</w>
ans as</w>
all s</w>
risk -
pre val
v eget
resol utions</w>
priv ate-
Inter agency</w>
Com ple
6 ,
over payments</w>
Ohi o</w>
Aut om
repa irs</w>
lear n</w>
Fi eld</w>
De termin
convic ted</w>
a h</w>
to b
B eg
fore closure</w>
cas e-
tel e
Wild life</w>
sh ar
presid ent</w>
Res ource</w>
I B
tain ties</w>
in accurate</w>
im ages</w>
i stan
consolid ate</w>
Resol ution</w>
pp i</w>
minim al</w>
Pro pos
h arm
argu ment</w>
Facil ity</w>
E R
Mississi ppi</w>
Claim s</w>
ple ased</w>
mat urity</w>
don e
de posit</w>
collec tively</w>
wh e
R an
H osp
be an</w>
p eak</w>
low er-
stock pile</w>
k es</w>
explo sives</w>
comp ati
histor ic</w>
L ist</w>
fo ods</w>
consul t</w>
met ric</w>
e ters</w>
- specific</w>
statisti cally</w>
sett ings</w>
rec ycl
contain ers</w>
con ve
qu a
g ar
ex ac
dre w</w>
rec ession</w>
I L
b re
pl ays</w>
truc ks</w>
N EPA</w>
rais es</w>
ke wise</w>
manufactu red</w>
F -
E qu
sim pli
anc e.
In done
volunt arily</w>
complet ely</w>
Agricul tural</w>
percent ages</w>
invest ed</w>
N ext
Fac tors</w>
help ful</w>
Fr ance</w>
imp ed
Samo a</w>
emb assy</w>
exp ir
D ist
u d</w>
recogn izes</w>
controversi al</w>
for fe
teach er</w>
ex posed</w>
en em
depend ents</w>
Sign ific
servic ers</w>
in ability</w>
explan ation</w>
design ate</w>
V ol
the ater</w>
resc is
excl ude</w>
Re qu
pris on</w>
assist ing</w>
pack ages</w>
pharm acy</w>
dis closed</w>
Enter prise</w>
com position</w>
Regul ations</w>
E U
De fin
du al</w>
Estim ates</w>
t ant</w>
9 2</w>
M .</w>
Chic ago</w>
ep water</w>
fair ly</w>
coh ol</w>
it y—
Li ke</w>
pro ve</w>
acci dents</w>
Ex port</w>
F ree</w>
compl ying</w>
it ative</w>
agenc y
warran ted</w>
peti tions</w>
distinc t</w>
Judg e</w>
concep ts</w>
measu rable</w>
concl udes</w>
ti fication</w>
Secur ities</w>
F .
CF PB</w>
ven ile</w>
are as
Braz il</w>
re produced</w>
lead s</w>
cent ury</w>
Bene fit</w>
Ang el
Over view</w>
I .
Di ffe
rou te</w>
design s</w>
Pro bl
canc er</w>
scre en</w>
AP H
incre mental</w>
flexi ble</w>
ass ert</w>
Wast e</w>
signific ance</w>
tempor arily</w>
NA P</w>
S .
pre ferences</w>
ship ping</w>
instru ment</w>
C al
t un
over come</w>
r on</w>
as sure</w>
Qa eda</w>
usu al</w>
sha re
ici ous</w>
pl ed</w>
projec t
gre en</w>
credi ble</w>
C T</w>
exc essive</w>
b orders</w>
invest or</w>
as sign</w>
Islam ic</w>
coll ateral</w>
Commer cial</w>
sim ple</w>
ap parent</w>
er ic</w>
fail ures</w>
en ship</w>
Initi atives</w>
string ent</w>
in appropriate</w>
sem i
T ak
FY200 1</w>
C L
gradu ate</w>
f illing</w>
ast ern</w>
ans w
coun sel</w>
aff airs</w>
Ma c</w>
incorpor ating</w>
entit lement</w>
u ph
market place</w>
weigh ted</w>
G E</w>
v ast</w>
l or
municip al</w>
D o</w>
v ent
sh ut
fur n
s ev
alig ned</w>
tob acco</w>
1. 4</w>
Fam ilies</w>
bureau s</w>
CE N</w>
fl uctu
easi er</w>
sh o
rest ore</w>
R ed
rad ar</w>
a sts</w>
3 3
10 -year</w>
le ver
enti rety</w>
Treat y</w>
Ma intenance</w>
u ted</w>
develop s</w>
st on</w>
rem edy</w>
in fra
occup ational</w>
life- cycle</w>
read ing</w>
Rec lam
Jer sey</w>
IP P</w>
F IS
s— the</w>
multi -
accred itation</w>
or ous</w>
detec ted</w>
inf ec
200 5.
declar ation</w>
Reti rement</w>
C iti
tan ks</w>
st ing</w>
Control s</w>
A T</w>
F our</w>
sa w</w>
config uration</w>
c o</w>
Cri minal</w>
es .S
NT IA</w>
M D
G L
sch ol
enrol l</w>
public -
deduc tions</w>
7 ,
.R es</w>
democr atic</w>
elim ination</w>
Geor ge</w>
exceed s</w>
e ously</w>
v ital</w>
borrow ing</w>
FS IS</w>
urric anes</w>
Fin CEN</w>
vari able</w>
um b
I D</w>
su itable</w>
ra in</w>
counter terrorism</w>
ici ans</w>
ordin ary</w>
tem per
pa per
inhe rently</w>
Buil ding</w>
re placing</w>
dissem ination</w>
typ ical</w>
s essions</w>
compris ed</w>
adv ances</w>
reg ister</w>
Ph ys
w ards</w>
g r
ar ray</w>
Stu dies</w>
R R
degre es</w>
ti er</w>
Probl ems</w>
civili ans</w>
W ould</w>
Reclam ation</w>
sever ity</w>
40 1</w>
trade -
se iz
rel uc
9 3</w>
new s</w>
experienc ing</w>
develop mental</w>
Star ts</w>
tot yp
nat ur
al ignment</w>
overse es</w>
11 1-
10 9</w>
J .</w>
cap tured</w>
M E</w>
P ass
G -
tra in
ethn ic</w>
CP SC</w>
sustain ability</w>
inhe rent</w>
preven ted</w>
Comb at</w>
cho os
I SA</w>
lat est</w>
St reng
vide o</w>
en th</w>
T eam</w>
Jo b</w>
bin ding</w>
Simil ar</w>
APH IS</w>
remain der</w>
Lev el</w>
pip elines</w>
require ments.
mit t
vi able</w>
peri od
deliver ing</w>
Syri a</w>
tax able</w>
rap h</w>
respon ders</w>
acci dent</w>
fir st-
B P</w>
197 0s</w>
accompl ished</w>
E P
consequ ence</w>
ill icit</w>
carr y
a th
Cap it
s low
un paid</w>
assi stan
vo ice</w>
direc ting</w>
simul tan
claim ant</w>
Wil li
g l
es see</w>
U A
F arm</w>
inter dic
ca using</w>
In stitu
IN A</w>
Bur ma</w>
use fulness</w>
alloc ating</w>
Mea sures</w>
FY200 0</w>
En sure</w>
Employ ees</w>
on ed</w>
collec tive</w>
T est
oper s</w>
Ve hic
monit ored</w>
ext ending</w>
termin ate</w>
Organiz ations</w>
H I
insu rer</w>
3. 5</w>
immig rants</w>
ti ed</w>
mis sible</w>
Tran sit</w>
pharm acies</w>
. This</w>
pro v
me ant</w>
ann ed</w>
re tail
bri dge</w>
Im pl
G ran
F u
quanti tative</w>
W .</w>
exceed ing</w>
toc ols</w>
el led</w>
sw it
con stitutes</w>
Nor thern</w>
scho ol
empha size</w>
work sh
strong ly</w>
1 5.
ffici ency</w>
re printed</w>
l ose</w>
f aster</w>
trac ked</w>
consider ably</w>
C -1
Adv anced</w>
1 4.
Mid dle</w>
Electron ic</w>
system ic</w>
justi fy</w>
deriv atives</w>
pic ture</w>
mi su
M em
int ellectual</w>
dis ruption</w>
IV -
Next Gen</w>
simil arly</w>
ox ide</w>
expl ore</w>
att end
V ice</w>
es. We</w>
analy tical</w>
er vi
Ne ed</w>
prob ably</w>
consist encies</w>
Sec ure</w>
encoun tered</w>
L EA</w>
ap preh
Tak en</w>
E O</w>
T enn
so il</w>
custom s</w>
18 0</w>
t ex
investig ating</w>
critici zed</w>
Imple menting</w>
Beg inning</w>
assum ption</w>
w et
offen der</w>
ga thering</w>
fail ing</w>
eth anol</w>
con fusion</w>
cong estion</w>
sec ured</w>
bur den
youn g</w>
y .The</w>
ing er
T ru
re vision</w>
dru g
aud itor</w>
E arly</w>
pres sion</w>
ran king</w>
recommen ds</w>
ph o
mail ed</w>
Z one</w>
Offic ers</w>
hou ses</w>
tr ying</w>
is m
end -
Engine ering</w>
M s</w>
du m
dis advantaged</w>
stu died</w>
li vestock</w>
ity- based</w>
Polic ies</w>
D et
200 7.
au c
propor tion
li ves</w>
H is
op ened</w>
Str uc
L S</w>
run s</w>
car s</w>
cli ent</w>
Be en</w>
tradi tionally</w>
refuge es</w>
Statisti cs</w>
C M</w>
po sted</w>
zer o</w>
quali fications</w>
Whe ther</w>
N et</w>
Is land</w>
int ra
Tim e</w>
aud ited</w>
Individu al</w>
A er
squ are</w>
ac knowledge</w>
resi li
privati zation</w>
autom o
wel ls</w>
viol ated</w>
t rou
exec ute</w>
Mat eri
I H
an cies</w>
er n
g one</w>
V s</w>
per -
gran ting</w>
att end</w>
Ab use</w>
private- sector</w>
Ob servations</w>
valu ed</w>
sor ti
Com pens
Hel p</w>
gener aliz
Man ual</w>
transp arent</w>
uncer tainties</w>
trans ferring</w>
ati n</w>
Se a</w>
s or</w>
re taining</w>
ex ha
der ing</w>
adop ting</w>
trac ks</w>
jur y</w>
p ping</w>
truc k</w>
en sively</w>
Pal est
4 ,000</w>
yi el
ervi sts</w>
ch ann
D .
C ard</w>
ar t</w>
C F</w>
re alized</w>
k illed</w>
consum ing</w>
it ability</w>
st ation
identi cal</w>
ac u
STE M</w>
enti rely</w>
high er-
VIS IT</w>
Mo del</w>
Davi d</w>
10 8-
p ir
E qui
t a</w>
H u
week ly</w>
ru ptions</w>
dec lines</w>
L .</w>
require ment
Fra ud</w>
Jap anese</w>
Adv oc
U sed</w>
dead lines</w>
percent .
S TA
pat h</w>
eti c</w>
ear th
al ert</w>
k ept</w>
vi sion
s ly</w>
f ts</w>
ten sion</w>
norm ally</w>
In te
F /
Inspec tion</w>
bench mark</w>
loo king</w>
justi fied</w>
ad he
Amend ments</w>
T PP</w>
alli es</w>
D D
AM P</w>
op ening</w>
at e
a —
duplic ative</w>
His pan
B ay</w>
large- scale</w>
Hawai i</w>
finan ci
Li brary</w>
y nam
ward ship</w>
S NAP</w>
- 2</w>
re sum
aud i</w>
exclu sively</w>
oper ation
disc oura
am munition</w>
M ade</w>
Indu stri
revis ing</w>
busin ess
pro tocols</w>
mic ro
decre ases</w>
Are as</w>
scrutin y</w>
radi ological</w>
depos its</w>
Pro posed</w>
J ames</w>
Co operation</w>
manufac ture</w>
O M</w>
medi um</w>
S D
short age</w>
affili ated</w>
197 4</w>
He alth
ca su
C ari
197 8</w>
GAO -1
10 0
w il
dri ve</w>
10 -
vou cher</w>
d airy</w>
she et</w>
patter n</w>
c ut
S audi</w>
don or</w>
tri be</w>
den ial</w>
un t
dam aged</w>
en erg
Stat ement</w>
re fund</w>
inc ur</w>
1. 6</w>
Ap p
grou p
cont ra
b att
compromis e</w>
C .
travel ers</w>
sk ill</w>
public ations</w>
Com par
198 4</w>
sion ally</w>
lab eling</w>
Devel op</w>
ter ing</w>
d il
cir cuit</w>
N ev
for um</w>
Impro vements</w>
Con duc
parag raph</w>
a qu
shi pment</w>
pro totyp
exclu sive</w>
Dom estic</w>
Angel es</w>
facilit ating</w>
re ci
u res
Chem ical</w>
cur ricul
D .</w>
O TC</w>
ext rem
P R</w>
licen sees</w>
10 1</w>
un like</w>
no w
eng aging</w>
Impro ved</w>
in consistencies</w>
viol ate</w>
St eps</w>
In dependent</w>
Engine ers</w>
rob ust</w>
depart mental</w>
enem y</w>
Pay ment</w>
mar t</w>
ell ing</w>
E r
em por
C limate</w>
recur ring</w>
n es
M oun
Missi le</w>
b at
S a
interven tions</w>
ground water</w>
11 1
underst ood</w>
High -
Rob ert</w>
FO IA</w>
introduc tion</w>
counter fe
fe rees</w>
O ptions</w>
den y</w>
ballo t</w>
att ended</w>
def aul
Ris ks</w>
judici ary</w>
Develop ing</w>
under way</w>
ine e</w>
Investig ation</w>
1. 7</w>
s an</w>
government -wide</w>
L P</w>
te en</w>
concentr ated</w>
delinqu ent</w>
volum es</w>
param eters</w>
r is</w>
s pl
par lia
correc ted</w>
Y ears</w>
200 4.
ast er
1 6.
sti c</w>
prev entive</w>
ev acu
pollut ants</w>
Bran ch</w>
withdraw al</w>
Pe ace</w>
depend ence</w>
author izations</w>
v /
PP ACA</w>
Le ban
fre edom</w>
concentr ation</w>
schedul ing</w>
pa in</w>
cr ash</w>
R est
. Although</w>
resid ence</w>
Leg al</w>
recor ding</w>
P il
will ing
urg ent</w>
main ly</w>
com pa
assign ments</w>
ex tr
DO I</w>
me at</w>
under writing</w>
attribu tes</w>
ad s</w>
Sav ings</w>
cre ening</w>
ag ue</w>
dis counted</w>
-to- day</w>
agend a</w>
pl edg
ari al</w>
e /
AR RA</w>
publis h</w>
dis agree</w>
Vi ol
marri ed</w>
GAO/ T-
De f
I T
discipl inary</w>
at tract</w>
vir us</w>
an ding</w>
behavi oral</w>
rel ying</w>
tari ffs</w>
sh ap
posi tioned</w>
un anim
es el</w>
coll eges</w>
ad mission</w>
Cari b
shif ted</w>
invest ing</w>
Sp ec
NSIA D-9
200 6.
sti pul
gen der</w>
func tionality</w>
Fin ancing</w>
b agg
Tax pay
Docu ments</w>
su ff
cap s</w>
le ased</w>
f em
su gar</w>
prosec ut
regul ator</w>
Compens ation</w>
AC S</w>
n u
o gen
fore ign
P lease</w>
1 20
st o
le b
fa x</w>
cri tics</w>
F C</w>
Capit ol</w>
prev ail
Dis ability</w>
speci fications</w>
b lood</w>
D on
wholes ale</w>
shif ting</w>
day -to-day</w>
compu ting</w>
El ection</w>
prof ile</w>
B os
produc tive</w>
Ukra ine</w>
7. 5</w>
u ting</w>
U A</w>
ran dom
pos session</w>
R et
h op
di a</w>
L atin</w>
A ud
match ed</w>
formul as</w>
lin k
ig u
tan k</w>
10 2</w>
expres sly</w>
biom etric</w>
Tur key</w>
establish ments</w>
ep tions</w>
c ar</w>
imprison ment</w>
er a</w>
dro p</w>
vir tually</w>
Super fund</w>
C E</w>
sustain ment</w>
roun ds</w>
mess age</w>
Go als</w>
fi ve
b ying</w>
sub stitute</w>
mis conduct</w>
th ink</w>
pro ven</w>
OI RA</w>
E RI
Nev ada</w>
ti an</w>
s mo
restric tion</w>
TA RP</w>
defici ency</w>
au ction</w>
carry over</w>
propri etary</w>
n av
extrem ely</w>
Ran king</w>
L NG</w>
Eligi bility</w>
argu ably</w>
US- VISIT</w>
practi tioners</w>
pat ents</w>
ist leb
pow er
bi an</w>
Opportun ities</w>
In novation</w>
liquid ity</w>
exp ire</w>
6 ,000</w>
Lo ans</w>
2 2
.C RS</w>
c ents</w>
tur ned</w>
si x
pres erve</w>
bal anced</w>
propos e</w>
fis hing</w>
agenc y-
discus sing</w>
Re fu
tri als</w>
servic ing</w>
sub -
pass port</w>
au gh
F I</w>
plainti ffs</w>
Ex per
milit ar
Ac ting</w>
mo bility</w>
C over
willing ness</w>
enhanc ements</w>
for d</w>
confir mation</w>
el ement
Carib bean</w>
sub jects</w>
Four th</w>
bran ches</w>
bound aries</w>
ar rest</w>
E SEA</w>
er als</w>
depart ure</w>
therap y</w>
est ed</w>
ERI SA</w>
en abling</w>
de voted</w>
rec o
en abled</w>
Syst em
Y ou</w>
Th om
N on-
B EA</w>
constra ined</w>
O m
or g
anti bio
os si
generaliz able</w>
200 3.
un lawful</w>
t our
We b
ten ed</w>
custodi al</w>
Pak istan
A R</w>
3 7
moder n</w>
ga ined</w>
consult ants</w>
re ver
Sm ith
valid ated</w>
o par
devel opers</w>
al es</w>
Red u
P TO</w>
L ack</w>
dou ble</w>
buy ers</w>
Ch o
fi red</w>
Palest ini
D ak
198 2</w>
manag ement
ab in
S T</w>
oph istic
en um
commen ting</w>
certific ate</w>
dri ving</w>
Contrac ting</w>
re vol
W el
vari ations</w>
diffe rently</w>
M ail</w>
nom inations</w>
sec tor
Sh aring</w>
F oc
s. As</w>
Atl antic</w>
li ft</w>
Pan el</w>
10 8
safegu ard</w>
P ay</w>
B SA</w>
en jo
dec reas
NA FTA</w>
G ra
A D</w>
k y</w>
compa res</w>
ing ing</w>
Egyp t</w>
gri d</w>
con sular</w>
reve aled</w>
deleg ated</w>
dis covered</w>
bil l
H IV</w>
De epwater</w>
sign als</w>
Mar k
ris es</w>
Di d</w>
s ophistic
abs or
chec ked</w>
wel l
vi ous</w>
2. 1</w>
se ems</w>
ation .The</w>
Ti er</w>
T od
solic itation</w>
an g</w>
pro x
s in</w>
St re
ess ed</w>
R CE
Ch ec
Appro ach</w>
famili ar</w>
alog ue</w>
S ust
-2 2</w>
sol ar</w>
Com pl
remedi al</w>
influ enced</w>
categor ized</w>
5 3
perman ently</w>
con ferences</w>
ballo ts</w>
50 0,000</w>
. While</w>
moder ate</w>
mobil ization</w>
clos er</w>
nor thern</w>
He ad
produc er</w>
g etting</w>
rig orous</w>
Dem on
tal ks</w>
f lag</w>
predic t</w>
S pending</w>
H R</w>
2. 2</w>
inm ates</w>
e ver
Opportun ity</w>
do or</w>
F FS</w>
concl ude</w>
Ter m</w>
prec ise</w>
er b
sp ill</w>
res tim
f ear</w>
desi re</w>
territ orial</w>
asp ect</w>
O ES
Isra el
8 ,
-1 2</w>
an o
P O
11 3-
vis itors</w>
sp ea
coun tr
int er</w>
fo ot
f inger
Weap ons</w>
Tenn essee</w>
announc ement</w>
seg ments</w>
ph ased</w>
criteri on</w>
re sistance</w>
out break</w>
bil e</w>
reti ree</w>
mitig ating</w>
Incre ase</w>
w o
peace keeping</w>
p us</w>
Ap pl
conven i
C B</w>
sur ances</w>
prohib iting</w>
c ra
res ervists</w>
performanc e-based</w>
work loads</w>
short fall</w>
denti ality</w>
institu tion
h ment</w>
Min nes
forec ast</w>
br inging</w>
PA A</w>
we alth</w>
assum ing</w>
Cy ber
wea k</w>
conver ted</w>
es hi
equi pped</w>
ill nesses</w>
C ase</w>
1. 8</w>
ell ation</w>
ear n</w>
P ort</w>
veri fying</w>
-2 1</w>
our nal</w>
fe ed</w>
IP C</w>
ing -
F NS</w>
correspon dence</w>
I Gs</w>
de ter</w>
U C</w>
10 7
de -
V E
L akes</w>
hand led</w>
al d</w>
repe at
marg in</w>
bagg age</w>
ann ie</w>
Mari time</w>
amb igu
ear ance</w>
Li kewise</w>
de fe
NA RA</w>
- time</w>
clin ics</w>
Con sistent</w>
- on</w>
Indone sia</w>
post secondary</w>
F annie</w>
separ ated</w>
jec tion</w>
coun ting</w>
ac hed</w>
s an
P D</w>
on au
ch e
Wor kers</w>
at tainment</w>
Ass embly</w>
figh ters</w>
- day</w>
subsidi aries</w>
deb tor</w>
SS N</w>
.S ince</w>
I ran
est s</w>
Al li
200 8.
or ds</w>
cost- sharing</w>
E ITC</w>
sp are</w>
obstac les</w>
marg inal</w>
brok er-
sou thern</w>
pres sures</w>
je opar
inten dent</w>
s— such</w>
B ro
tri tion</w>
ter y</w>
hard ship</w>
ND AA</w>
N utrition</w>
200 9.
or -
Scho ols</w>
forec asts</w>
ell ate</w>
dg es</w>
h os
environ ments</w>
cri ption</w>
bu ying</w>
Continu ing</w>
pharmaceu tical</w>
ju venile</w>
D N
neigh b
w ing</w>
th ri
sugg estions</w>
parti san</w>
res sing</w>
W ill</w>
mat h</w>
ic h
budg et
G r
Adj ust
on ally</w>
z en</w>
ro duce</w>
reco vered</w>
deploy ments</w>
aver aged</w>
S ite</w>
L CS</w>
f ro
c e.
bil led</w>
A gen
Sup ply</w>
question able</w>
Ex pan
win d
dang erous</w>
regul ating</w>
merg er</w>
chron ic</w>
Ha z
t ended</w>
li e
P M</w>
seg ment</w>
emerg encies</w>
in sight</w>
er ts</w>
se ats</w>
h app
endang ered</w>
uni versity</w>
S ucc
D B</w>
Guid elines</w>
20 .
ju red</w>
Ex p
-1 B</w>
vol ati
ash es</w>
sensi tivity</w>
Pro f
non governmental</w>
Vari ous</w>
NS C</w>
ou gh
P L
Lead ership</w>
K enn
Dist ribu
kin ds</w>
mach ines</w>
4. 5</w>
form er
T P</w>
P opul
O J
Ex peri
air space</w>
Integr ation</w>
min es</w>
ed .In</w>
compet encies</w>
re feren
them ati
sec u
preced ing</w>
refl ecting</w>
- 3</w>
PH As</w>
Signific ant</w>
with holding</w>
ab et
— in</w>
F E</w>
st amp</w>
N TS
E l</w>
CD BG</w>
wai ve</w>
Sp ea
G as</w>
Ar ch
ap por
he igh
consist ing</w>
Ph il
C .</w>
year s.
ex trac
electr ical</w>
Rol e</w>
work place</w>
bid s</w>
rul ed</w>
five -year</w>
sign al</w>
schem e</w>
depo ts</w>
c ell</w>
a is
re location</w>
servic es.
de preciation</w>
Dak ota</w>
diff ering</w>
ce iling</w>
B udg
tas ked</w>
Minnes ota</w>
the ory</w>
Min ority</w>
en ric
ea u
200 2.
int roduce</w>
n utri
contrac tor
review ers</w>
biom ass</w>
Op en</w>
F le
E V
FA C</w>
empor ary</w>
defic its</w>
activiti es.
Un it</w>
indic ation</w>
Avail able</w>
tern arcotics</w>
detec ting</w>
B ei
2. 3</w>
suppor tive</w>
out lines</w>
recre ational</w>
consolid ating</w>
am ing</w>
O ND
L R
Dis ease</w>
confi dentiality</w>
ou ts</w>
dis ruptions</w>
Redu ce</w>
2 1
fix ed-
Tod ay</w>
e al
N ation
NM FS</w>
G G
life time</w>
al cohol</w>
ultim ate</w>
co ol
al .
At t
tin ent</w>
b led</w>
chann els</w>
off sets</w>
Direc tive</w>
11 5</w>
war fare</w>
convic tion</w>
consul ting</w>
T el
assess es</w>
no ver</w>
clari fied</w>
O B
E SA</w>
Bo eing</w>
imple ment
compati ble</w>
reserv ation</w>
econ d</w>
P ati
K e
compens ate</w>
st and</w>
out com
U N
sen sors</w>
Con di
recru it</w>
R C
hy po
func tioning</w>
ett lement</w>
ch lor
X X
ID EA</w>
servicem ember</w>
comman der</w>
e- related</w>
S P</w>
Coll ection</w>
oc ean</w>
NA IC</w>
en listed</w>
diffe red</w>
fore sts</w>
Eff ects</w>
0 1</w>
susta ining</w>
E th
S ha
ti ll</w>
elec toral</w>
encourag es</w>
cas e
Sta ke
fi duci
c tic</w>
U s
desi rable</w>
F ish</w>
18 .
f ran
Venezuel a</w>
NTS B</w>
NA S
retur ning</w>
ang i
fin e</w>
Smith son
recre ation</w>
A chi
pan els</w>
200 1.
Oper ating</w>
diplom acy</w>
repe al</w>
lob bying</w>
com ings</w>
12 -
as surances</w>
priv ately</w>
ep i
acceler ated</w>
R HS</w>
multi pl
R ang
demonstr ating</w>
OND CP</w>
r are</w>
liqui d</w>
ar ticle</w>
consi st</w>
stream line</w>
si st</w>
Surve illance</w>
under ground</w>
co di
volunte ers</w>
tim e
mo des</w>
back ed</w>
Proc essing</w>
Cap abilities</w>
inqui ries</w>
Speci fic</w>
remedi es</w>
budg eted</w>
Tran sition</w>
per tinent</w>
s— including</w>
con serv
Produc tion</w>
trigg er</w>
Lif e</w>
Deb t</w>
BL S</w>
counter measures</w>
Con nec
barg aining</w>
agency wide</w>
in jured</w>
evi d
suppor ters</w>
AC E</w>
navi gation</w>
fin ds</w>
confi d
W omen</w>
al ism</w>
SB IR</w>
ad mitted</w>
at -
it ure</w>
S CHIP</w>
Mus li
citiz enship</w>
ant a</w>
ach ment</w>
t s
roy alty</w>
evalu ates</w>
eri a</w>
dis placed</w>
r yp
plainti ff</w>
former ly</w>
sign s</w>
vers y</w>
certific ates</w>
