the 8145023
, 7687120
and 4820554
of 4773430
. 4714700
to 4556950
in 2596525
a 2166330
for 1993245
that 1971728
) 1152850
( 1148907
on 1098167
or 941139
as 926543
is 893785
with 873166
’ 804803
s 795098
by 785137
not 762418
be 738866
are 730098
The 702394
from 646590
an 572960
have 571724
its 467228
at 438668
has 423266
it 409728
their 405938
this 403268
; 400472
was 399626
we 396543
other 388626
$ 387722
were 378431
In 377892
which 377847
would 371143
program 357029
these 356131
also 351619
information 329487
officials 305628
such 304911
may 300309
: 298775
they 297815
data 291926
federal 288569
more 275983
's 266866
report 260786
our 251111
-@@ 246291
than 240355
about 239877
will 236777
all 235943
state 234075
U.S. 232368
had 229564
re@@ 221734
agencies 221193
ing 220133
been 217930
1 216750
year 216624
million 214140
For 211430
programs 211296
some 209554
use 206993
can 206554
S@@ 204395
We 200698
could 199467
through 193619
provide 192612
2 191593
under 189852
but 188065
ed 184905
including 184815
DOD 184779
government 179837
states 177212
agency 177080
percent 175783
one 175209
used 174260
example 172530
in@@ 170121
services 169120
M@@ 168840
new 167841
Act 166941
any 166621
time 166212
P@@ 162568
.@@ 162459
because 160077
Congress 159659
un@@ 158595
each 156955
management 156298
fiscal 156288
L@@ 155419
system 155153
number 154341
funding 153846
years 153675
requirements 152791
As 152785
process 152749
provided 151750
3 151717
costs 150807
C@@ 150591
cost 146496
if 146455
States 146453
reported 145593
who 144720
United 144712
However 144642
over 143745
H@@ 140906
B@@ 140793
activities 140335
D@@ 140249
addition 139451
er 139322
e 138829
plan 138516
security 138259
ation 137497
did 137287
es 136646
review 136581
those 136361
work 136017
E@@ 135849
support 135307
funds 134103
% 133789
R@@ 132346
A@@ 131329
performance 128831
when 128465
This 126626
t@@ 125233
A 124198
required 124063
T@@ 123286
health 122129
O@@ 121922
ate 120891
systems 120318
financial 119677
include 118476
F@@ 118236
efforts 118201
plans 117999
two 117281
available 116639
no 116098
s@@ 115983
made 115602
how 115304
b@@ 114750
public 114585
into 114059
most 113369
whether 112742
between 111928
only 109566
c@@ 109196
N@@ 108003
Department 107877
billion 107578
should 106911
additional 106835
us 106795
4 105666
based 105093
t 105071
during 104829
y@@ 104557
ers 104341
I 104283
5 102970
W@@ 102474
e@@ 102238
staff 101230
development 101218
related 100451
within 99972
law 98803
care 98651
ated 98577
able 97957
al 97736
According 97525
both 96732
service 96438
G@@ 96037
address 95951
training 95774
found 95767
p@@ 95630
risk 95601
tax 94665
assistance 93955
State 93746
current 93391
National 93362
Office 93324
must 92618
do 92405
level 92368
m@@ 91743
identified 91228
policy 91130
does 91110
well 90749
—@@ 90607
projects 90356
increase 90148
” 89696
I@@ 89609
ensure 89586
“ 89557
local 89371
budget 89083
included 88639
er@@ 88100
benefits 88081
standards 87744
stated 87660
determine 87369
These 87199
Federal 87161
issues 86443
l@@ 86352
3@@ 86038
generally 85728
after 85682
part 85541
said 85457
military 85292
reports 85284
Secretary 85236
total 85018
To 84768
many 84523
among 84469
specific 84200
6 83258
certain 83128
several 83074
dis@@ 82862
actions 82553
changes 82060
guidance 81913
there 81685
en@@ 81580
provides 81428
h@@ 81299
d@@ 80883
areas 80827
operations 80510
potential 80394
project 80073
them 79972
2@@ 79971
amount 79952
al@@ 79767
o@@ 79554
4@@ 79547
a@@ 79391
reviewed 79249
out 79042
f@@ 79007
ability 79002
three 78773
result 78254
y 78178
using 78172
key 78086
Security 77669
ts 77370
g@@ 77286
national 77137
need 76890
help 76848
- 76654
resources 76517
first 76504
less 76225
ted 76083
make 75996
n@@ 75616
R 75430
k@@ 75294
V@@ 75293
while 75288
Program 75176
J@@ 75165
analysis 75080
i@@ 75008
ting 74916
Defense 74902
de@@ 74225
President 74133
cases 74042
7 73818
identify 73727
authority 73724
5@@ 73227
10 72312
it@@ 72029
an@@ 71918
House 71683
IRS 71574
8 71554
C 71552
Administration 71338
GAO 71282
O 71140
rate 71090
ations 70864
facilities 70513
ating 70347
EPA 70171
increased 69952
w@@ 69790
control 69710
at@@ 69549
require 69196
non@@ 69138
results 68707
K@@ 68529
Army 68416
private 68412
research 68380
DHS 68227
noted 67634
s.@@ 67621
individual 67516
VA 67472
develop 67376
established 67345
being 67315
countries 67292
Service 66276
/@@ 66263
procedures 65943
u@@ 65355
needed 64857
told 64724
on@@ 64717
Senate 64714
access 64699
or@@ 64673
significant 64487
same 64409
market 64326
9 64115
case 64023
where 63957
annual 63781
major 63693
foreign 63490
up 63413
basis 63320
business 63240
order 63157
st@@ 63117
meet 62906
D 62740
It 62705
6@@ 62642
action 62592
before 62431
goals 62253
improve 61961
needs 61807
policies 61775
income 61736
contract 61653
economic 61532
future 61296
limited 61281
measures 61208
age 61141
appropriate 61023
personnel 61012
period 60992
U@@ 60864
since 60593
what 60481
per 60234
rates 60229
received 60155
ar@@ 60075
payments 59893
conducted 59727
proposed 59502
ates 59193
.The 58666
employees 58510
response 58386
request 58268
v@@ 58107
7@@ 57901
implementation 57873
ent 57718
tions 57625
as@@ 57621
con@@ 57553
ally 57447
so 57440
P 57420
E 57240
extent 57215
organizations 57198
further 57173
o 56906
30 56820
practices 56661
enforcement 56575
individuals 56543
safety 56380
di@@ 56351
industry 56342
reporting 55904
Section 55872
quality 55870
2008 55861
bill 55804
following 55718
2010 55605
8@@ 55519
against 55469
While 55384
2009 55366
planning 55355
pay 55281
provisions 55239
medical 54942
without 54891
S 54711
ti@@ 54708
developed 54643
however 54494
Committee 54486
B 54450
audit 54439
regulations 54373
Management 54355
Washington 54323
estimates 54237
office 54125
take 54110
oversight 54094
different 53954
existing 53870
DOE 53802
r@@ 53742
sub@@ 53604
associated 53556
September 53502
T 53470
recommendations 53416
levels 53396
general 53389
set 53226
2005 53188
F 53087
providing 53071
receive 53031
insurance 52854
likely 52852
challenges 52840
developing 52686
estimated 52375
reduce 52160
d 52116
according 51744
issued 51307
members 51303
es@@ 51151
Air 51002
large 50981
compliance 50969
various 50924
investment 50861
i 50737
problems 50728
change 50667
9@@ 50448
tion 50323
concerns 50318
2007 50156
th 50121
& 50068
technology 49998
ac@@ 49903
might 49883
end 49855
2006 49809
interest 49781
effective 49722
Re@@ 49710
responsible 49699
small 49486
approach 49403
Although 49322
act 49220
study 49217
selected 49213
water 49181
inter@@ 49166
important 49116
requires 48778
im@@ 48745
2004 48743
ab@@ 48666
th@@ 48428
capital 48378
Force 48014
four 47995
ly 47881
factors 47880
recent 47694
M 47682
assessment 47642
credit 47638
appropriations 47617
am@@ 47567
companies 47534
over@@ 47520
contracts 47427
necessary 47256
products 47179
trade 47152
Treasury 47013
decisions 47007
see 46908
objectives 46893
prior 46860
assess 46835
least 46814
e-@@ 46650
ri@@ 46564
en 46494
General 46479
conduct 46447
eligible 46433
ad@@ 46321
2003 46314
due 46291
area 46230
el@@ 46229
official 46203
Some 46175
progress 46169
impact 46136
issue 46069
grant 46067
2011 45980
technical 45879
offices 45869
spending 45840
2000 45825
groups 45782
interviewed 45759
equipment 45720
types 45719
ment 45630
includes 45618
Under 45331
high 45203
critical 45059
10@@ 45031
average 45025
obtain 45001
OMB 45001
higher 44978
payment 44926
co@@ 44881
then 44831
making 44819
n 44712
subject 44638
implement 44571
2012 44495
decision 44411
15 44365
continue 44295
benefit 44246
expected 43974
ant 43921
taken 43916
June 43814
site 43783
P.L 43710
pro@@ 43686
survey 43678
status 43612
agreement 43460
March 43385
regarding 43357
considered 43324
account 43321
country 43270
2002 43213
s—@@ 43167
If 43105
k 43097
grants 43092
contractor 43089
fully 43036
19@@ 42971
production 42798
ic@@ 42667
ent@@ 42666
power 42633
value 42630
2001 42514
similar 42335
group 42327
Medicare 42317
overall 42280
complete 42170
Health 42123
20 42100
H.R 41977
ro@@ 41961
days 41861
ur@@ 41830
January 41791
December 41736
date 41673
D.C. 41633
May 41604
workers 41596
In@@ 41405
international 41354
mission 41347
su@@ 41270
ing@@ 41241
implementing 41230
als 41209
non-@@ 41194
ol@@ 41128
estimate 41126
pre@@ 41086
department 40966
questions 40893
establish 40821
50 40815
currently 40805
direct 40764
across 40695
court 40687
children 40497
Navy 40411
evidence 40307
es.@@ 40258
documents 40201
either 40190
processes 40100
way 40098
ding 40070
discussed 40028
acquisition 40027
test 40014
si@@ 39967
until 39854
ch@@ 39754
section 39753
July 39709
ance 39677
rules 39677
2013 39579
.In 39543
another 39525
ap@@ 39514
ity 39451
authorized 39382
New 39376
nuclear 39328
property 39292
list 39280
11 39245
intended 39239
range 39165
criteria 39146
Medicaid 39113
ic 39105
strategic 39104
approved 39102
comments 39074
conditions 39007
tive 39006
2014 38939
believe 38921
On 38916
risks 38877
Court 38856
education 38833
requirement 38787
role 38709
even 38701
reviews 38671
laws 38646
five 38583
final 38487
rule 38436
lack 38389
monitoring 38291
uses 38264
ments 38255
om@@ 38198
ag@@ 38155
determined 38087
table 38079
under@@ 38077
sector 38051
ed@@ 38034
completed 38031
place 38016
land 37974
fund 37933
drug 37878
em@@ 37810
is@@ 37772
FDA 37702
his 37687
claims 37668
energy 37668
steps 37651
Our 37647
legislation 37635
human 37607
implemented 37471
CMS 37467
air 37459
better 37431
Appendix 37413
above 37390
recommended 37380
housing 37015
assets 36993
allow 36932
testing 36870
food 36845
ary 36783
greater 36735
contractors 36702
aircraft 36564
school 36536
early 36522
possible 36517
ine 36490
sources 36480
past 36444
particular 36440
providers 36403
Services 36377
working 36368
others 36364
effect 36308
October 36307
operating 36302
strategy 36299
ex@@ 36248
' 36221
often 36183
lower 36164
regional 36138
loan 36014
child 35992
p 35976
12 35972
own 35945
committee 35934
requested 35860
Ex@@ 35676
agreed 35655
op@@ 35648
responsibilities 35635
findings 35622
construction 35591
provision 35586
April 35535
ors 35403
funded 35373
documentation 35358
sites 35341
il@@ 35339
25 35337
regulatory 35288
HHS 35256
us@@ 35255
At 35236
obtained 35216
commercial 35184
sp@@ 35176
share 35169
primary 35149
Specifically 35140
congressional 35128
Corps 35103
entities 35044
0@@ 35041
infrastructure 35034
Agency 34984
ds 34975
schedule 34835
Con@@ 34720
pl@@ 34699
2015 34692
records 34624
measure 34584
purposes 34561
design 34502
[ 34489
] 34481
facility 34481
se@@ 34434
coverage 34417
Table 34406
community 34376
internal 34343
FAA 34317
e.@@ 34234
l 34205
b 34147
li@@ 34102
ded 34097
sufficient 34065
? 34060
effort 34027
American 33985
price 33951
consider 33886
L 33817
20@@ 33771
operational 33743
m 33672
agreements 33620
full 33558
held 33474
es—@@ 33399
difficult 33291
oil 33274
he 33273
given 33266
reasonable 33231
II 33227
initiatives 33224
et@@ 33158
ings 33114
administrative 33070
controls 33061
Title 33048
studies 33003
compared 32987
capabilities 32969
met 32954
US@@ 32950
ies 32949
evaluation 32947
capacity 32924
Further 32918
Bureau 32887
focus 32884
relevant 32868
approximately 32857
involved 32818
units 32674
planned 32647
paid 32646
defense 32609
loans 32608
Information 32550
employment 32485
maintenance 32428
11@@ 32425
HUD 32402
led 32373
effectiveness 32367
standard 32351
China 32321
trans@@ 32277
force 32093
the@@ 32093
percentage 32083
field 32072
Director 32052
per@@ 31919
Guard 31898
0.@@ 31892
environmental 31830
rather 31820
much 31794
form 31788
ment@@ 31718
Education 31702
previously 31694
effects 31660
z@@ 31502
savings 31499
below 31460
Other 31378
components 31359
1@@ 31357
still 31262
transportation 31228
draft 31224
February 31211
System 31197
application 31110
ter 31107
designed 31042
out@@ 30991
activity 30980
participants 30914
forces 30805
population 30769
organization 30707
growth 30700
assessments 30666
terms 30642
although 30639
TSA 30636
ence 30573
point 30479
St@@ 30402
maintain 30307
Commission 30279
type 30233
sion 30229
best 30207
Because 30123
os@@ 30010
you 29980
consistent 29970
initial 29904
institutions 29838
affect 29805
One 29742
1996 29719
18 29647
people 29593
amounts 29588
Al@@ 29501
directly 29397
1997 29319
USDA 29302
protection 29286
students 29249
red 29125
et 29117
-related 29103
king 29097
-based 29074
active 29067
months 29056
enacted 29014
De@@ 28934
prices 28830
Y@@ 28769
aid 28752
fees 28735
firms 28653
November 28587
lo@@ 28554
company 28481
indicated 28471
known 28470
They 28449
scope 28447
recommendation 28442
ul@@ 28440
ren@@ 28351
y-@@ 28335
perform 28331
defined 28297
treatment 28296
stakeholders 28260
upon 28258
201@@ 28234
res@@ 28231
200@@ 28206
eligibility 28061
x 28032
1998 28023
comprehensive 27914
increases 27884
goal 27851
SSA 27845
Appropriations 27842
emergency 27836
apply 27762
gas 27665
ra@@ 27650
CA@@ 27648
increasing 27620
le@@ 27582
long-term 27571
source 27561
meeting 27537
Energy 27517
managers 27515
Center 27504
legal 27486
-1@@ 27459
continued 27432
responsibility 27406
g 27345
August 27316
el 27257
domestic 27248
last 27229
ants 27210
processing 27154
reduced 27153
qu@@ 27138
covered 27129
vi@@ 27117
second 27113
rights 27083
officers 27063
single 27036
ve 27011
ative 26994
tion@@ 26986
est 26985
1999 26808
IT 26808
and@@ 26765
structure 26761
independent 26722
primarily 26690
h 26663
13 26617
having 26609
model 26567
special 26544
representatives 26489
ter@@ 26487
applications 26457
statement 26433
called 26404
multiple 26398
min@@ 26345
sh@@ 26322
PS 26306
affected 26290
product 26256
day 26243
particularly 26241
position 26225
RA 26220
technologies 26207
effectively 26184
schools 26177
collection 26148
FEMA 26134
reduction 26116
100 26047
Fund 26019
workforce 25991
executive 25955
shows 25955
0 25936
Development 25923
Coast 25920
beneficiaries 25905
rec@@ 25862
statutory 25859
ous 25845
ir@@ 25842
Budget 25789
14 25779
items 25745
ways 25740
appendix 25721
concern 25685
lead 25627
3.@@ 25605
achieve 25587
revenue 25580
shown 25552
home 25479
ks 25459
debt 25383
ph@@ 25379
limit 25371
ation@@ 25363
approval 25349
parties 25331
SA@@ 25306
CA 25301
31 25262
options 25242
political 25238
governments 25226
centers 25220
now 25218
low 25176
12@@ 25155
j@@ 25131
mo@@ 25105
ow@@ 25068
accordance 25057
size 25003
committees 24977
functions 24947
accounts 24939
fuel 24924
contributions 24900
line 24889
Board 24860
S. 24851
employee 24795
purpose 24780
2016 24711
created 24704
yet 24624
written 24608
elements 24587
experts 24576
six 24548
purchase 24542
der 24539
USAID 24539
investments 24526
le 24507
actual 24497
focused 24463
building 24454
1995 24440
family 24432
minimum 24387
G 24341
um 24320
Public 24316
c 24313
evaluate 24291
submitted 24258
Pro@@ 24235
detailed 24230
serve 24199
PA 24163
coordination 24127
mis@@ 24126
already 24123
16 24120
previous 24111
cl@@ 24091
Government 24083
-2@@ 24068
analyzed 24064
SA 23999
Affairs 23983
III 23978
banks 23965
specifically 23924
ical 23923
An 23913
.S@@ 23905
began 23885
Reserve 23860
material 23853
expenditures 23839
Report 23835
member 23812
majority 23785
CBP 23785
40 23784
2.@@ 23784
long 23701
person 23676
sample 23575
veterans 23549
alternative 23528
largest 23527
ob@@ 23504
ongoing 23504
Council 23480
See 23458
accepted 23449
supply 23435
term 23396
participation 23360
receiving 23316
bank 23308
contracting 23303
N 23286
ass@@ 23263
ec@@ 23252
s.The 23248
electronic 23238
Since 23198
remaining 23188
nation 23169
few 23166
comp@@ 23144
means 23141
very 23119
Ch@@ 23088
wide 23082
proposals 23054
criminal 23040
become 23031
performed 23027
District 23023
21 23022
positions 23018
reliable 23014
missions 23013
no@@ 22999
International 22987
added 22930
later 22925
proposal 22863
ators 22854
e.g. 22835
Plan 22801
determining 22790
Additionally 22782
things 22764
legislative 22734
times 22731
toward 22723
joint 22718
bo@@ 22711
Iraq 22645
language 22642
recently 22633
potentially 22630
sharing 22629
um@@ 22624
weapons 22601
clear 22545
passed 22539
Justice 22496
addressed 22494
y.@@ 22483
described 22452
component 22452
5.@@ 22449
points 22449
man@@ 22414
ency 22396
variety 22385
common 22280
CO@@ 22280
bi@@ 22239
When 22200
conducting 22187
During 22151
environment 22128
war@@ 22106
tors 22102
collected 22088
capability 22078
ep@@ 22061
,000 22032
ite 22028
ans 22025
face 22001
fee 21997
GSA 21966
submit 21940
identifying 21922
Figure 21897
prevent 21893
materials 21876
categories 21864
contact 21860
1.@@ 21841
1994 21809
earlier 21790
separate 21790
demand 21789
17 21778
IS@@ 21772
base 21765
families 21758
ses 21723
60 21722
Not 21714
experience 21699
4.@@ 21695
allowed 21657
establishing 21633
reducing 21596
referred 21565
expenses 21561
space 21544
labor 21532
Labor 21525
GAO-0@@ 21520
differences 21515
reasons 21498
life 21494
manage 21492
network 21465
remain 21463
se 21462
for@@ 21460
Com@@ 21437
travel 21392
ke 21390
Finally 21354
copies 21345
strategies 21303
ed.@@ 21281
natural 21265
taking 21253
tr@@ 21233
fraud 21233
id@@ 21202
markets 21182
U.S.C 21176
return 21159
net 21151
la@@ 21119
distribution 21113
Also 21098
Research 21089
MA 21070
raised 21047
communities 21045
tional 21015
outside 20984
practice 20976
methods 20973
asked 20967
businesses 20959
24 20934
Executive 20917
Ar@@ 20908
ne@@ 20896
requests 20874
Financial 20869
cover 20830
Staff 20821
opportunities 20817
North 20815
Social 20814
designated 20797
V 20723
ship 20719
authorities 20699
gu@@ 20694
Homeland 20694
intelligence 20669
track 20644
money 20622
center 20615
board 20607
ou@@ 20596
ar 20591
reflect 20579
monitor 20558
award 20531
mental 20522
Dis@@ 20518
22 20486
par@@ 20475
improvements 20453
6.@@ 20453
Os 20453
transfer 20443
IS 20432
202 20428
applicable 20389
priority 20363
drugs 20322
longer 20318
PA@@ 20285
to@@ 20247
protect 20211
located 20203
directed 20159
30@@ 20157
district 20155
Policy 20107
requiring 20098
ve@@ 20095
addressing 20095
document 20089
significantly 20087
With 20086
all@@ 20062
listed 20051
delivery 20032
dec@@ 20028
res 20012
cash 20011
reform 20007
improving 19995
po@@ 19991
assist 19970
database 19963
every 19962
ut@@ 19958
specified 19956
ages 19941
be@@ 19919
regulation 19919
present 19905
operate 19889
headquarters 19882
ness 19876
En@@ 19871
adequate 19861
ev@@ 19853
ator 19814
AC@@ 19801
SEC 19797
Most 19793
Q@@ 19789
procurement 19785
-year 19769
employers 19764
expressed 19755
ited 19695
ch 19691
California 19684
region 19680
users 19680
software 19671
cor@@ 19665
down 19665
transactions 19659
sales 19655
Co@@ 19653
unit 19644
ement 19643
relatively 19639
consideration 19622
Commerce 19621
supporting 19616
create 19614
limits 19609
Moreover 19607
methodology 19569
next 19552
statute 19551
ics 19539
ters 19524
target 19516
Assistance 19476
locations 19452
ensuring 19452
There 19445
your 19443
work@@ 19435
First 19418
SBA 19392
fied 19391
ay@@ 19382
limitations 19380
terrorist 19377
eg@@ 19367
up@@ 19355
persons 19346
half 19321
appropriation 19269
physical 19259
thus 19251
sions 19221
name 19220
taxes 19214
Cs 19176
Sub@@ 19166
13@@ 19166
spent 19152
portion 19145
Furthermore 19140
substantial 19133
IA 19106
accounting 19098
15@@ 19080
19 19074
hours 19068
gra@@ 19063
NA@@ 19043
in-@@ 19010
conclusions 19009
emissions 19009
initiative 18996
Data 18994
loss 18984
inventory 18976
framework 18946
collect 18929
terrorism 18914
Transportation 18913
199@@ 18888
au@@ 18884
Comments 18884
ess@@ 18881
border 18872
Congressional 18863
annually 18860
priorities 18860
operation 18853
retirement 18832
x@@ 18812
nearly 18794
obligations 18790
contained 18774
Officials 18773
resulted 18768
iti@@ 18764
typically 18737
reliability 18729
question 18727
tim@@ 18712
waste 18656
visited 18653
senior 18651
7.@@ 18635
threat 18617
statements 18610
ports 18601
com@@ 18583
Programs 18564
t-@@ 18562
resulting 18552
efficiency 18549
economy 18527
administration 18506
tra@@ 18502
al-@@ 18490
civil 18484
right 18477
timely 18477
parts 18455
guidelines 18435
taxpayers 18425
ving 18409
vehicles 18398
recipients 18372
Bank 18368
revised 18365
ati@@ 18364
applied 18345
mon@@ 18338
third 18325
analyses 18312
ure 18304
therefore 18286
ents 18249
pilot 18223
bills 18213
cited 18209
former 18208
shall 18201
fi@@ 18139
ties 18136
offer 18134
civilian 18131
resolution 18126
resource 18126
23 18124
option 18115
election 18113
Assistant 18105
respond 18104
basic 18098
ig@@ 18061
tor 18028
tests 18024
tri@@ 18021
accountability 18003
disaster 17998
Is 17994
Joint 17979
est@@ 17977
enhance 17971
— 17965
balance 17951
OPM 17920
screening 17907
ons 17902
u 17864
Un@@ 17859
outcomes 17845
ear@@ 17843
discuss 17833
18@@ 17800
competitive 17792
like 17762
larger 17710
sent 17704
took 17605
sed 17600
dollars 17592
assessed 17587
RA@@ 17584
global 17574
broad 17565
fying 17565
EU 17553
along 17541
Of 17541
location 17532
party 17530
he@@ 17512
ize 17512
personal 17496
unless 17493
improved 17480
ps 17467
ically 17459
FE@@ 17437
free 17425
ational 17424
problem 17421
almost 17415
port@@ 17386
version 17345
1,@@ 17340
cont@@ 17337
ves 17329
claim 17327
ized 17311
respect 17300
orders 17294
compensation 17277
departments 17269
occurred 17236
definition 17236
90 17231
concluded 17224
availability 17219
NASA 17208
nature 17205
beyond 17195
managing 17186
figure 17186
reviewing 17185
Many 17184
Foreign 17178
de 17171
ha@@ 17168
amended 17161
view 17156
By 17137
28 17130
weaknesses 17125
Interior 17120
involving 17119
communications 17102
offered 17099
little 17079
losses 17073
leadership 17072
Th@@ 17047
Rec@@ 17043
condition 17043
produce 17043
lands 17041
inspection 17036
throughout 17024
iting 17024
entity 17023
transition 17020
RS 17008
testimony 16994
jurisdiction 16992
forms 16989
s.In 16982
uni@@ 16972
sur@@ 16930
approaches 16895
revenues 16884
Internet 16883
supported 16825
te 16816
fl@@ 16814
tic@@ 16809
enti@@ 16803
open 16772
After 16756
Technology 16752
197@@ 16742
Command 16737
Members 16723
IP 16700
ization 16681
high-@@ 16681
occur 16671
file 16669
exchange 16665
AI@@ 16648
Protection 16645
consumers 16642
participate 16640
student 16633
Human 16631
relative 16624
FA@@ 16578
duty 16547
i.e. 16547
characteristics 16541
cause 16539
regulators 16527
DOT 16524
job 16520
vehicle 16505
-3@@ 16494
published 16465
od@@ 16445
export 16422
pa@@ 16415
South 16404
projected 16382
computer 16379
0,000 16373
Thus 16372
auditing 16360
month 16358
consumer 16354
Control 16335
opportunity 16329
record 16327
80 16322
Recovery 16321
appropriated 16311
allows 16304
ation.@@ 16297
sc@@ 16290
Ac@@ 16276
e—@@ 16268
goods 16267
otherwise 16263
No 16261
men@@ 16257
ines 16254
beginning 16239
CS@@ 16232
managed 16230
program@@ 16211
Li@@ 16206
vote 16201
though 16197
me@@ 16193
Year 16192
mandatory 16174
awarded 16174
events 16156
inspections 16149
An@@ 16140
courts 16136
ins 16135
ked 16130
competition 16111
FCC 16106
financing 16096
1993 16086
Mar@@ 16080
,@@ 16078
Per@@ 16067
circumstances 16062
rely 16039
acy 16023
All 16021
CD@@ 16019
changed 15996
charge 15995
provider 15971
understanding 15951
pen@@ 15942
Operations 15886
off 15883
contain 15881
8.@@ 15878
introduced 15875
MA@@ 15846
officer 15802
fact 15796
assessing 15788
partners 15785
late 15768
complex 15765
Mexico 15764
26 15750
TC 15741
restrictions 15740
reductions 15735
especially 15724
challenge 15720
contrast 15720
investigations 15718
accuracy 15714
certification 15709
self-@@ 15706
der@@ 15699
IV 15677
wh@@ 15669
too 15666
air@@ 15659
sts 15654
promote 15627
participating 15626
U.S 15621
ities 15611
Marine 15611
numbers 15609
agricultural 15600
carriers 15597
knowledge 15596
entry 15582
Agencies 15580
Such 15573
qualified 15547
ali@@ 15535
Trade 15529
Indian 15523
incentives 15514
FBI 15511
placed 15496
MS 15493
responses 15477
ge 15474
farm 15473
employer 15460
reach 15459
Chief 15428
views 15413
examined 15404
improvement 15403
securities 15385
accurate 15384
ality 15384
formal 15374
manner 15363
her 15358
17@@ 15337
Another 15335
AS@@ 15327
ships 15298
Each 15294
importance 15288
rail 15284
successful 15234
ad 15218
ling 15214
whose 15204
izing 15203
fe@@ 15198
are@@ 15185
Contact 15170
carry 15162
call 15155
me 15146
determination 15146
fin@@ 15138
27 15137
les 15103
facilitate 15094
fac@@ 15089
assigned 15086
More 15074
back 15073
unable 15071
threats 15064
largely 15051
category 15048
ering 15043
announced 15039
tools 15022
returns 15020
ements 15011
recovery 15009
H 15005
integrated 14980
adopted 14965
owners 14953
signed 14950
alization 14945
Pre@@ 14940
investigation 14937
filed 14937
suggested 14935
leading 14919
U 14917
fo@@ 14913
roles 14907
25@@ 14906
show 14893
experienced 14888
incorporated 14869
airports 14859
owned 14849
original 14847
cur@@ 14832
fication 14812
interviews 14810
29 14801
disability 14792
anc@@ 14780
indicate 14771
delays 14754
deployment 14753
achieving 14750
form@@ 14722
real 14721
counter@@ 14701
Afghanistan 14675
continuing 14642
letter 14634
SE@@ 14634
50@@ 14633
FY@@ 14629
attacks 14623
customers 14622
applicants 14617
examine 14616
NC@@ 14615
communication 14600
permanent 14598
2017 14598
ea@@ 14588
FTA 14584
social 14574
A-@@ 14574
transit 14559
comply 14545
port 14537
9.@@ 14535
exports 14530
loc@@ 14528
40@@ 14528
permit 14527
r 14524
regular 14513
enc@@ 14513
ill@@ 14506
Division 14503
Web 14496
once 14489
phase 14486
interests 14481
abuse 14478
Background 14475
NNSA 14445
old 14444
35 14430
Inter@@ 14423
rural 14423
hospitals 14420
discussion 14414
patients 14410
Part 14406
mortgage 14391
har@@ 14384
ten@@ 14367
att@@ 14341
That 14340
monthly 14332
chemical 14325
CE@@ 14324
Di@@ 14322
aspects 14322
light 14321
Russia 14311
skills 14306
firm 14272
amendment 14266
ances 14263
formula 14259
ver@@ 14248
world 14240
maximum 14236
ning 14231
done 14230
ved 14224
card 14222
alized 14207
hold 14203
served 14197
seven 14195
te@@ 14190
low@@ 14185
st 14171
Z@@ 14168
ms 14167
Based 14156
disclosure 14136
smaller 14130
FT@@ 14118
CP@@ 14107
wor@@ 14106
files 14092
For@@ 14083
ely 14067
trust 14066
objective 14060
DOJ 14048
understand 14025
IC 14022
audits 14017
500 14013
DA 14011
appear 14003
combat 13984
14@@ 13975
targets 13970
staffing 13969
grantees 13960
nor 13950
Has 13948
setting 13947
spoke 13943
As@@ 13933
useful 13928
fire 13927
son 13915
encourage 13903
HS@@ 13902
clearly 13901
expanded 13898
DS 13888
relationship 13886
system@@ 13886
ying 13879
violations 13878
team 13876
assurance 13849
du@@ 13848
impacts 13841
contains 13835
Korea 13820
pay@@ 13815
customer 13804
.To 13788
.We 13782
regard 13758
§ 13756
factor 13745
updated 13734
task 13730
NRC 13722
user 13708
core 13697
ho@@ 13685
agents 13685
From 13684
authorization 13675
passenger 13673
plants 13670
USPS 13665
IC@@ 13634
represent 13629
remains 13618
ess 13576
fy 13573
ty 13568
produced 13565
maintaining 13555
ci@@ 13554
Mo@@ 13551
recommend 13548
sol@@ 13542
interagency 13541
plant 13523
bur@@ 13520
law@@ 13514
attention 13506
recognized 13499
ist 13499
ste@@ 13498
serious 13485
prepared 13480
TA@@ 13478
multi@@ 13468
method 13458
completion 13453
Association 13448
one-@@ 13446
meetings 13445
released 13438
cooperation 13428
ful 13419
post@@ 13415
begin 13415
Are 13402
districts 13398
title 13397
airport 13378
discretionary 13375
CS 13373
ast 13364
mechanisms 13357
head 13352
concerning 13338
ari@@ 13338
Care 13338
RC 13337
presented 13325
rel@@ 13321
comment 13315
mail 13304
allocation 13284
75 13283
65 13283
advis@@ 13282
§@@ 13279
deb@@ 13277
traditional 13265
aviation 13265
baseline 13265
we@@ 13252
cap@@ 13247
welfare 13243
ship@@ 13235
Housing 13235
FS@@ 13231
ens 13230
Among 13222
efficient 13220
makes 13213
Performance 13211
-9@@ 13210
NS@@ 13206
visits 13198
speci@@ 13183
errors 13178
RE@@ 13175
selection 13174
pose 13150
flexibility 13133
classified 13122
Similarly 13113
seek 13100
go@@ 13099
good 13087
dollar 13062
on-@@ 13060
ered 13031
York 13023
mer@@ 13013
Review 13011
TANF 12990
continues 12985
employed 12984
oring 12984
Supreme 12983
crime 12970
inv@@ 12964
event 12947
go 12942
European 12938
fig 12938
inform@@ 12936
ke@@ 12936
IP@@ 12933
man 12923
instances 12923
ise 12919
TS 12889
manufacturing 12884
release 12881
pe@@ 12874
cargo 12872
enrollment 12862
acts 12845
branch 12840
'@@ 12838
taxpayer 12827
Food 12824
immigration 12822
ry 12798
ot 12781
sec@@ 12777
Both 12777
calls 12772
DO@@ 12762
success 12760
ud@@ 12758
build 12752
improper 12749
Stat@@ 12741
Forest 12740
Safety 12738
Me@@ 12729
DC 12728
tu@@ 12723
charged 12723
subsequent 12720
numerous 12707
ant@@ 12706
er-@@ 12696
just 12691
expand 12691
models 12688
Tra@@ 12679
central 12668
Acknowledgments 12667
trends 12665
tracking 12662
extended 12661
holders 12657
fewer 12651
red@@ 12650
Agriculture 12648
agree 12641
organizational 12641
enough 12640
evaluations 12639
Funding 12637
and/or 12636
together 12636
4-@@ 12631
asset 12629
storage 12626
char@@ 12619
wage 12618
climate 12597
decrease 12595
IR@@ 12595
America 12586
OS@@ 12560
70 12555
lists 12554
sing 12552
instead 12549
Evaluation 12544
with@@ 12543
oun@@ 12531
history 12526
Systems 12526
ot@@ 12515
course 12502
deployed 12497
OIG 12497
surveillance 12488
coordinate 12482
conference 12474
finance 12466
filing 12464
temporary 12464
ma@@ 12448
BLM 12443
atic 12439
around 12432
ably 12429
eight 12425
Veterans 12425
always 12415
enter 12401
Therefore 12396
operators 12393
avoid 12383
tribal 12380
jobs 12355
sen@@ 12346
liability 12343
ory 12342
borrowers 12341
sufficiently 12335
surveys 12301
close 12295
CRS 12295
women 12293
essential 12288
Cl@@ 12281
describe 12276
mar@@ 12276
av@@ 12253
Environmental 12251
1990 12250
combined 12244
function 12240
ong 12235
hospital 12231
ard 12230
Fiscal 12221
allocated 12219
top 12217
class 12214
cleanup 12209
tic 12203
W 12189
pension 12185
holding 12174
TA 12173
matter 12168
citizens 12164
degree 12157
Reform 12157
war 12156
verify 12147
f 12146
ist@@ 12142
Enforcement 12138
1992 12137
external 12124
leaders 12123
dat@@ 12122
electricity 12121
showed 12114
emb@@ 12112
manufacturers 12107
equal 12098
deficiencies 12089
homes 12083
.C@@ 12079
scheduled 12079
commitment 12074
Military 12070
examples 12065
species 12061
failure 12059
positive 12038
Issues 12031
entered 12029
ect 12028
sive 12026
pat@@ 12024
aries 12023
incentive 12023
sought 12012
ai@@ 12011
SB@@ 12000
properties 11999
ain 11967
burden 11963
find 11961
... 11959
ns 11954
tur@@ 11952
NP@@ 11948
Have 11938
str@@ 11937
decline 11930
Sh@@ 11928
performing 11927
ran@@ 11919
patient 11919
land@@ 11916
acc@@ 11909
lines 11909
CM@@ 11907
flight 11905
ures 11887
sale 11887
volume 11887
Without 11887
vary 11877
duties 11864
trac@@ 11860
imports 11856
attack 11847
Related 11847
vis@@ 11844
of@@ 11838
supplemental 11837
Qu@@ 11832
please 11819
considering 11815
correct 11814
ations.@@ 11806
45 11803
maintained 11799
excess 11798
16@@ 11785
Letter 11785
tool 11774
influence 11762
Those 11759
ell@@ 11752
Economic 11748
interested 11742
charges 11740
voluntary 11731
U.S.-@@ 11728
consistently 11727
entire 11725
details 11724
publicly 11720
ders 11715
targeted 11712
obtaining 11698
—the 11694
appears 11687
ture 11680
oc@@ 11675
60@@ 11674
caused 11674
highest 11669
advance 11668
Insurance 11664
expertise 11655
networks 11655
overseas 11649
tor@@ 11648
examination 11648
voting 11646
panel 11641
debate 11622
aging 11602
atory 11599
Business 11597
side 11594
sign@@ 11593
w 11591
substantially 11590
evaluating 11585
allowing 11576
DS@@ 11571
am 11570
Project 11570
Internal 11568
Action 11552
X 11552
awards 11551
explained 11549
arri@@ 11542
negotiations 11529
involve 11526
reserve 11512
ble 11500
ver 11489
ze 11489
corporate 11489
TS@@ 11486
documented 11485
so@@ 11475
traffic 11475
concerned 11473
professional 11470
Census 11455
aware 11443
exist 11440
sometimes 11437
ish 11434
premium 11414
reason 11408
growing 11400
informed 11392
reg@@ 11382
representative 11379
stat@@ 11374
Acquisition 11373
identification 11373
move 11371
sensitive 11369
regions 11367
sion@@ 11356
ber@@ 11350
living 11343
inten@@ 11336
notice 11326
5-@@ 11323
judicial 11320
readiness 11319
GAO/@@ 11315
older 11308
demonstrate 11299
shared 11297
cost-@@ 11292
Support 11291
know 11285
PS@@ 11279
fil@@ 11275
FD@@ 11275
households 11270
contributed 11267
ta@@ 11264
sectors 11263
hol@@ 11260
fair 11260
Tax 11259
conflict 11239
Institute 11239
alternatives 11226
assumptions 11222
d-@@ 11218
high@@ 11209
World 11198
Oversight 11195
WTO 11194
complaints 11192
ute 11189
give 11176
ker 11176
followed 11175
id 11173
X@@ 11170
CC 11162
constitutional 11160
incidents 11153
Group 11147
Challenges 11144
police 11130
follow 11123
Bo@@ 11120
relief 11117
geographic 11116
em 11115
Inspector 11114
Mon@@ 11111
enable 11104
contribute 11104
foster 11102
workload 11088
MS@@ 11074
v. 11070
instance 11055
Govern@@ 11036
ts.@@ 11035
AT@@ 11033
og@@ 11026
hearing 11015
os 11014
devices 11014
ring 11008
http 11006
34 11003
Several 11001
ological 11001
earnings 10987
adequately 10987
ber 10984
integration 10980
update 10980
Central 10977
prepare 10977
select 10968
Key 10967
cul@@ 10962
poor 10957
investors 10946
administered 10939
inc@@ 10929
today 10922
achieved 10922
Border 10887
OP@@ 10887
seeking 10879
Chairman 10866
jurisdictions 10860
hand 10858
41 10857
exceed 10855
enactment 10854
residents 10853
itation 10826
aliens 10822
damage 10819
step 10812
unique 10809
respondents 10804
down@@ 10797
ia 10795
city 10794
CO 10791
advanced 10789
Additional 10789
corrective 10788
2-@@ 10782
den@@ 10775
Obama 10773
engineering 10770
fall 10767
Bush 10767
repair 10758
RP 10755
gaps 10749
transferred 10744
sets 10743
42 10735
Administrator 10726
z 10716
Intelligence 10713
discussions 10713
mechanism 10704
forward 10703
plan@@ 10689
define 10686
doing 10672
cycle 10669
declined 10665
Training 10663
strengthen 10658
reforms 10649
Columbia 10645
scrubbed 10620
appro@@ 10619
Japan 10619
Standards 10618
educational 10616
sis 10611
ret@@ 10610
0-@@ 10608
principal 10607
closed 10607
Pl@@ 10603
inf@@ 10603
objec@@ 10599
atively 10598
amendments 10593
ped 10591
trafficking 10590
series 10584
Second 10577
inspec@@ 10575
believed 10574
anti@@ 10574
Water 10571
physicians 10569
aw@@ 10566
sponsors 10566
ext@@ 10562
Emergency 10562
adjusted 10556
raise 10554
accounted 10535
es.The 10531
Gu@@ 10527
standing 10524
governmental 10524
serving 10521
come 10512
ground 10509
exposure 10507
33 10505
end@@ 10491
privacy 10480
gener@@ 10477
pending 10473
CB@@ 10469
scientific 10462
principles 10460
des 10453
respectively 10452
process@@ 10449
difference 10444
medic@@ 10443
Corporation 10442
ine@@ 10441
represented 10435
short 10435
structures 10424
indicators 10422
lin@@ 10420
argue 10415
distributed 10406
inform 10403
resolve 10398
institution 10395
failed 10392
Texas 10387
IN@@ 10386
worked 10385
ery 10376
guide 10374
analyze 10369
equ@@ 10362
turn 10361
command 10360
stations 10360
Trans@@ 10356
Risk 10356
populations 10350
ences 10347
ously 10344
cred@@ 10337
summary 10333
exempt 10332
check 10330
initiated 10329
tested 10324
Its 10321
rating 10311
low-@@ 10311
disposal 10301
frequently 10297
crisis 10290
context 10284
prevention 10283
highly 10270
Resources 10262
ownership 10261
arms 10254
Ps 10251
constitu@@ 10250
gen@@ 10247
ICE 10247
addresses 10245
poverty 10241
supplies 10241
became 10235
parents 10227
200 10224
ones 10220
comparison 10219
No@@ 10217
PR@@ 10207
ice 10205
y—@@ 10203
ish@@ 10194
content 10186
demonstration 10185
tly 10178
offset 10176
Sec@@ 10173
Par@@ 10156
hiring 10156
CDC 10153
ub@@ 10152
worker 10151
ently 10143
ge@@ 10136
strong 10129
author 10127
telephone 10127
note 10125
Ma@@ 10125
Customs 10119
Efforts 10114
zing 10113
analysts 10107
detection 10100
ists 10087
2,@@ 10084
Two 10083
penalties 10082
modified 10080
HE@@ 10073
establishment 10072
Strategy 10072
periods 10070
secure 10069
ale 10067
except 10063
integrity 10056
intent 10055
acknowledged 10053
broader 10048
initially 10035
CI@@ 10023
changing 10019
itself 10018
por@@ 10017
Initiative 10017
usually 10012
ide@@ 10004
page 10003
bar@@ 9990
ak@@ 9984
Po@@ 9984
IG 9982
ack@@ 9978
argued 9977
disease 9977
196@@ 9976
employ@@ 9975
32 9973
low-income 9973
Deputy 9968
Se@@ 9966
Community 9960
ature 9955
actually 9955
re 9952
TE@@ 9951
competi@@ 9950
detail 9937
els 9930
Science 9927
house 9926
relating 9923
remained 9919
buildings 9911
depending 9909
ear 9903
disabilities 9896
commission 9894
collaboration 9891
br@@ 9887
anticipated 9882
mitigate 9879
Over 9878
Relations 9874
gao.gov 9870
granted 9868
Air@@ 9863
nationwide 9860
vo@@ 9858
Ro@@ 9858
nine 9856
und@@ 9851
why 9847
put 9843
play 9841
Nuclear 9838
refin@@ 9833
s-@@ 9829
bl@@ 9829
ee 9822
controlled 9820
surface 9818
adjustments 9818
stock 9816
Le@@ 9806
Fi@@ 9802
Cor@@ 9797
via 9795
explo@@ 9791
committed 9787
pres@@ 9786
cards 9783
missile 9775
teams 9774
cha@@ 9772
War 9770
ton 9768
whom 9766
unauthorized 9762
highway 9762
varied 9758
far 9754
involvement 9750
Ag@@ 9749
FH@@ 9748
illegal 9744
subsidy 9741
suggest 9740
partner 9740
presence 9731
quickly 9726
report@@ 9725
proc@@ 9724
nursing 9721
arm@@ 9715
description 9712
banking 9711
violation 9704
state-@@ 9701
FA 9698
removal 9691
adverse 9687
insured 9687
reached 9686
properly 9686
premiums 9679
ther@@ 9678
comb@@ 9677
supports 9664
youth 9648
near 9645
creating 9643
Given 9642
Drug 9642
direction 9638
Despite 9637
generated 9629
cer@@ 9627
opinion 9625
cre@@ 9620
predic@@ 9618
6-@@ 9617
daily 9614
servicemembers 9604
38 9599
ES@@ 9597
Florida 9585
eliminate 9583
fications 9566
reportedly 9563
Ad@@ 9562
ever 9554
ing.@@ 9548
Law 9545
matters 9538
Requirements 9538
body 9536
coun@@ 9535
checks 9530
nations 9523
Im@@ 9522
ile 9522
operated 9520
00 9516
violence 9512
ay 9508
eri@@ 9508
Cuba 9502
unclear 9500
evaluated 9483
coming 9477
situation 9475
cost@@ 9475
He 9472
exercise 9470
obligated 9470
igh@@ 9468
applicant 9467
Strategic 9454
safe 9449
Analysis 9447
–@@ 9445
Union 9440
tical 9437
-to-@@ 9432
identifies 9432
weapon 9429
Use 9421
iz@@ 9416
-level 9415
OC 9415
outreach 9407
beneficiary 9406
dic@@ 9403
Cost 9403
negative 9398
36 9398
newly 9396
bu@@ 9391
EA 9390
statutes 9385
coordinated 9374
v 9365
rest 9361
Iran 9360
kers 9359
faced 9358
24@@ 9355
input 9340
insurers 9338
read@@ 9334
reimbur@@ 9331
ining 9328
rent 9324
incident 9323
threshold 9322
barriers 9322
Global 9313
urban 9309
abil@@ 9296
fund@@ 9279
permits 9276
NE@@ 9275
COM 9272
Special 9269
3-@@ 9260
1-@@ 9259
conc@@ 9257
makers 9254
ban@@ 9249
ined 9246
Del@@ 9242
FHA 9239
ied 9234
What 9229
FM@@ 9228
patent 9225
collecting 9224
license 9223
bro@@ 9221
ast@@ 9214
values 9214
col@@ 9210
prohibited 9210
trading 9205
begun 9202
-- 9196
presidential 9196
physician 9196
completing 9192
post-@@ 9189
28@@ 9186
indicates 9183
Provi@@ 9176
del@@ 9175
bor@@ 9172
sanctions 9169
equity 9167
industries 9164
FY2009 9160
Amendment 9142
subsequently 9134
quarter 9131
pre-@@ 9125
mitigation 9125
ultimately 9123
37 9119
learned 9118
observed 9116
she 9111
enhanced 9106
7-@@ 9103
Attorney 9102
oversee 9097
marketing 9085
app@@ 9083
ca@@ 9083
advisory 9083
U.N. 9077
carrier 9076
FY2010 9073
s.S@@ 9064
pol@@ 9060
mentioned 9058
transparency 9057
tics 9054
finding 9053
real@@ 9039
FY2008 9038
gain 9022
delay 9020
ail@@ 9012
decided 9009
Process 9004
recorded 9004
OE@@ 9003
ending 9002
extensive 8999
Coll@@ 8997
start 8991
95 8988
Canada 8987
Authority 8986
high-risk 8986
Accounting 8983
off@@ 8982
lenders 8977
9-@@ 8974
purchases 8974
pr@@ 8968
absence 8957
waiver 8956
architecture 8956
run 8955
exception 8953
ancy 8951
takes 8945
tribes 8943
registration 8936
inflation 8933
respective 8931
Am@@ 8923
Tr@@ 8922
Subcommittee 8919
receives 8918
decreased 8915
clear@@ 8908
year@@ 8899
going 8898
media 8897
ni@@ 8894
search 8890
ays 8878
ach@@ 8867
nom@@ 8857
automated 8856
ished 8855
Grant 8854
choose 8848
attempt 8844
involves 8842
55 8836
mil@@ 8835
AP@@ 8832
faces 8831
modernization 8826
website 8825
ward 8822
Wh@@ 8820
AM@@ 8820
death 8809
difficulty 8799
academic 8798
vari@@ 8795
ce 8792
bio@@ 8789
car@@ 8784
FY2012 8781
HM@@ 8780
preliminary 8774
rence 8767
concurred 8764
expansion 8763
ats 8758
determines 8755
subsidies 8755
homeland 8754
II@@ 8750
missing 8749
enterprise 8745
48 8744
represents 8741
concept 8737
portfolio 8737
responding 8734
comparable 8731
Senator 8725
occup@@ 8720
ended 8719
observers 8707
frame 8706
satellite 8703
Personnel 8703
clinical 8701
regulated 8699
implications 8696
flood 8696
bas@@ 8695
keep 8692
Medical 8689
advantage 8688
imposed 8688
historical 8685
again 8673
LA 8667
SR@@ 8666
8-@@ 8665
sold 8665
directors 8664
tasks 8662
outcome 8660
gi@@ 8657
impl@@ 8650
memorandum 8648
secondary 8637
K 8636
cal 8635
industrial 8634
contribution 8634
dates 8629
federally 8629
describes 8628
bility 8623
flow 8614
ables 8612
visa 8611
t.@@ 8606
transaction 8602
calculated 8593
dem@@ 8588
Chinese 8588
rol@@ 8587
ang@@ 8584
D-@@ 8583
replace 8580
main 8574
producers 8573
ases 8570
creation 8564
consequences 8561
alize 8561
54 8555
emp@@ 8554
ight 8549
code 8546
comm@@ 8546
ley 8543
ere 8538
tail@@ 8535
generation 8532
lost 8531
Manag@@ 8530
44 8528
arrangements 8525
@ 8523
cr@@ 8515
AR@@ 8507
1991 8497
gap 8496
interim 8493
Methodology 8492
Iraqi 8488
our@@ 8484
discretion 8483
lease 8481
Planning 8477
leave 8473
analy@@ 8473
ME@@ 8472
confidence 8471
viewed 8468
avo@@ 8466
ft 8465
uc@@ 8458
science 8455
long@@ 8454
do@@ 8437
Coun@@ 8435
46 8426
stra@@ 8425
inspectors 8425
laboratory 8424
necessarily 8422
Ne@@ 8422
recipient 8417
FY2013 8415
spectrum 8412
my 8410
director 8403
difficulties 8401
regardless 8396
Pacific 8396
scale 8396
itable 8394
purchased 8393
frames 8382
eration 8374
47 8373
recognize 8372
olog@@ 8372
app 8367
pon@@ 8365
vac@@ 8363
station 8363
lessons 8361
CR 8359
27@@ 8355
ponents 8353
holder 8341
Africa 8335
underlying 8329
quarterly 8321
commitments 8319
paper 8318
enrolled 8316
PE@@ 8311
uncertainty 8310
lab@@ 8307
balances 8299
Agreement 8298
authorize 8294
pan@@ 8292
relationships 8292
visit 8286
VHA 8286
issuing 8281
evol@@ 8280
relations 8277
Scope 8277
mid@@ 8276
MO@@ 8272
Gulf 8270
back@@ 8270
198@@ 8268
pass@@ 8267
Nor@@ 8267
adjustment 8264
error 8260
accurately 8260
resolved 8257
coordinating 8254
works 8253
neither 8253
Small 8247
widely 8240
qualify 8240
partially 8236
affecting 8205
39 8203
tre@@ 8201
airlines 8192
posed 8191
asing 8189
India 8189
Grants 8186
awareness 8184
excluded 8182
authorizes 8182
Fe@@ 8179
increasingly 8177
paying 8176
ination 8175
replacement 8173
zation 8172
databases 8170
85 8169
disbur@@ 8167
tain 8166
EE@@ 8166
Needed 8164
61 8162
Revenue 8161
determinations 8158
Capital 8155
Authorization 8149
NI@@ 8128
ue 8127
prescription 8127
fer@@ 8125
verification 8125
removed 8122
immediate 8122
Y 8121
val 8118
utility 8117
Respon@@ 8113
def@@ 8111
detect 8107
consent 8097
ened 8094
hazardous 8093
ir 8091
Pakistan 8082
AC 8082
run@@ 8080
servic@@ 8069
ori@@ 8065
dom@@ 8065
certified 8063
Rs 8061
miles 8060
send 8057
ref@@ 8053
proportion 8051
ards 8041
try 8041
separately 8041
victims 8040
metrics 8039
Instead 8036
generate 8036
launch 8030
suppliers 8028
tual 8026
expl@@ 8025
sure 8024
imp@@ 8022
hi@@ 8016
ths 8016
permitted 8011
need@@ 8008
promp@@ 8003
Circuit 7996
extend 7994
spend 7994
seen 7993
add 7991
crop 7991
themselves 7990
successfully 7990
mission@@ 7987
left 7984
part@@ 7981
researchers 7978
sent@@ 7977
Sou@@ 7975
ately 7971
lending 7969
consultation 7968
Investment 7961
Representative 7958
ends 7956
manager 7954
encies 7952
bilateral 7946
ann@@ 7941
settlement 7938
ratio 7938
termin@@ 7937
statistical 7935
get 7934
sections 7933
responded 7930
Recommendations 7925
compare 7922
SS@@ 7921
brief@@ 7920
governance 7919
fuels 7915
FY2011 7914
thereby 7907
acting 7904
credits 7904
CF@@ 7900
ets 7899
bring 7896
Identi@@ 7895
engaged 7892
But 7891
installation 7891
modifications 7888
ars 7885
collections 7885
st-@@ 7881
household 7881
Comp@@ 7865
oper@@ 7865
despite 7864
canc@@ 7864
sup@@ 7863
Member 7858
element 7854
ection 7853
reflected 7851
ol 7848
Centers 7834
ard@@ 7828
DOL 7827
well-@@ 7824
NOAA 7822
combination 7821
Offices 7816
incurred 7814
retain 7814
matching 7806
continu@@ 7805
Response 7804
Trust 7802
unemployment 7791
representing 7789
Bi@@ 7787
background 7787
costly 7785
here 7783
delayed 7771
Cri@@ 7770
associations 7770
by@@ 7769
Even 7768
West 7765
fic@@ 7765
—and 7763
approve 7762
66 7762
carried 7760
census 7748
Out@@ 7744
ven@@ 7741
Implementation 7740
elections 7736
consumption 7736
hom@@ 7730
laboratories 7725
letters 7723
Using 7723
sexual 7719
Assessment 7718
nonprofit 7717
demonstrated 7714
retail 7710
commonly 7708
counties 7705
fore@@ 7703
mandate 7702
1990s 7701
profit 7696
Results 7695
issu@@ 7691
ow 7687
transfers 7684
ID@@ 7680
applies 7678
formul@@ 7671
Gen@@ 7670
emphasis 7669
expenditure 7667
constraints 7667
FY2014 7667
aggregate 7664
ping 7660
thing 7659
features 7659
adoption 7655
row@@ 7651
Postal 7648
posts 7644
reimbursement 7637
Park 7634
FDIC 7630
Pri@@ 7627
Res@@ 7626
bel@@ 7618
protected 7616
care@@ 7615
her@@ 7613
instruc@@ 7613
Russian 7610
Mc@@ 7604
expanding 7604
ron@@ 7600
Rule 7599
fu@@ 7598
pipeline 7597
incorporate 7594
budgets 7593
MD 7593
protecting 7592
.As 7592
partnership 7587
ght 7586
originally 7586
closely 7586
equivalent 7580
county 7579
notes 7578
minority 7577
contrac@@ 7577
51 7572
43 7569
organiz@@ 7565
anti-@@ 7563
helped 7554
5,000 7553
Benefits 7551
conservation 7551
road 7547
es.In 7544
int 7543
ord 7538
earned 7531
Sal@@ 7530
Code 7529
identity 7526
Once 7523
popul@@ 7520
512-@@ 7518
ian 7513
preparedness 7506
legisl@@ 7501
budgetary 7498
ude 7497
check@@ 7497
ism 7494
sell 7491
aimed 7491
enforce 7489
zed 7488
prioriti@@ 7483
mid-@@ 7482
76 7482
parent 7476
62 7475
Forces 7472
Plans 7472
cou@@ 7471
FY2006 7470
text 7469
VI 7466
prime 7463
capture 7460
suggests 7458
flo@@ 7457
sponsored 7456
alien 7455
proper 7451
pursuant 7450
re-@@ 7449
FR@@ 7444
engage 7438
likelihood 7435
dated 7428
offers 7424
Generally 7424
dra@@ 7418
Officer 7416
structured 7412
ity@@ 7408
penalty 7406
FY2015 7403
transmission 7402
fixed 7400
estimating 7400
ket 7399
match 7398
ple 7394
Order 7393
whole 7379
fa@@ 7374
candidates 7369
device 7364
rise 7364
expect 7364
ell 7363
contacted 7361
specify 7359
Alaska 7358
post 7357
aled 7351
ide 7350
oll@@ 7347
corporations 7344
dependent 7341
ential 7339
less@@ 7338
s.To 7336
schedules 7334
correc@@ 7333
insufficient 7333
distribu@@ 7332
projec@@ 7328
log@@ 7325
mandated 7322
biological 7321
How 7318
ner 7314
relied 7313
deficit 7313
med 7309
mi@@ 7306
keeping 7304
alone 7301
Costs 7299
Current 7295
practi@@ 7295
consolidated 7295
authorizing 7292
stage 7282
brought 7278
J 7278
consolidation 7276
ity-@@ 7270
obligation 7268
tation 7266
ric@@ 7266
never 7263
a-@@ 7260
fies 7258
linked 7258
Accountability 7257
formed 7253
fel@@ 7250
HCFA 7248
of-@@ 7243
Quality 7242
feedback 7239
accept 7238
Tri@@ 7235
produc@@ 7232
appeals 7228
vulnerabilities 7228
SSI 7228
passengers 7223
institutional 7222
delivered 7221
contingency 7217
eth@@ 7216
applying 7215
phone 7209
110@@ 7208
C-@@ 7202
dist@@ 7201
49 7201
milestones 7201
prescri@@ 7199
campaign 7195
short@@ 7193
Task 7193
online 7193
adjudic@@ 7189
armed 7187
carbon 7182
men 7179
52 7179
shift 7177
wa@@ 7177
interpre@@ 7174
Major 7174
installations 7168
eline 7162
fish 7161
CH@@ 7160
FY2007 7155
exists 7151
partnerships 7150
tax@@ 7149
exceeded 7146
Prior 7145
agre@@ 7143
sel@@ 7141
San 7140
mal@@ 7139
300 7139
53 7137
causes 7137
Establis@@ 7136
fleet 7135
electric 7127
rulemaking 7123
2018 7121
overseeing 7119
sit@@ 7118
item 7115
City 7114
submission 7113
inadequate 7107
neg@@ 7102
capable 7101
ill 7098
Rem@@ 7098
design@@ 7095
Infrastructure 7092
establishes 7086
mented 7085
University 7081
Representatives 7079
Activities 7073
Sup@@ 7069
round 7069
ening 7067
measured 7066
preparing 7065
hour 7065
clarify 7065
impose 7064
complaint 7064
judges 7063
Be 7062
moving 7060
fer 7054
gross 7052
inci@@ 7052
a.@@ 7049
mit 7049
INS 7045
stability 7044
Aviation 7041
SP@@ 7035
deter@@ 7034
look 7033
edly 7032
56 7032
deemed 7031
mail@@ 7029
int@@ 7023
La@@ 7020
named 7019
cross-@@ 7014
White 7014
eng@@ 7011
built 7007
sending 7006
70@@ 7006
Space 7003
motion 7000
offense 6995
NG@@ 6993
hearings 6987
Virginia 6986
Consequently 6963
sequ@@ 6962
diagno@@ 6962
length 6961
floor 6960
AD@@ 6960
Organization 6955
places 6947
ris@@ 6946
Fo@@ 6945
dent 6944
ity.@@ 6944
conver@@ 6942
FI@@ 6942
econom@@ 6939
procedure 6938
succ@@ 6938
sound 6936
perc@@ 6935
governing 6934
CI 6934
GDP 6933
calendar 6932
op 6930
Be@@ 6925
bonds 6916
denied 6915
measurement 6914
expensive 6913
Char@@ 6911
Pe@@ 6911
organized 6909
vision 6909
rat@@ 6902
farmers 6901
FAR 6901
animal 6900
eting 6895
1,000 6893
cap 6893
tered 6891
assumed 6887
Min@@ 6886
train 6880
examinations 6875
CIO 6874
cour@@ 6872
cell@@ 6872
adopt 6867
tes 6863
ed-@@ 6863
TI@@ 6861
ement@@ 6860
CBO 6859
wages 6858
HA 6854
retention 6852
guarantee 6846
80@@ 6845
agent 6845
Man@@ 6839
Regional 6839
hel@@ 6837
gradu@@ 6837
East 6835
rental 6833
ler 6832
ment.@@ 6831
exemption 6831
minimize 6829
proceedings 6825
ful@@ 6824
petition 6824
renewable 6824
erial 6819
judg@@ 6818
Survey 6817
division 6815
crimes 6814
appointed 6804
valid 6802
none 6801
staff@@ 6801
utilization 6800
Orders 6798
aff@@ 6798
nar@@ 6795
closure 6795
Aff@@ 6794
3,@@ 6794
Ph@@ 6793
injury 6792
expects 6787
bom@@ 6781
believes 6778
FSA 6777
behalf 6772
Taiwan 6772
FY201@@ 6770
Europe 6770
US 6769
literature 6768
purchasing 6764
expectations 6761
restoration 6761
DP 6757
home@@ 6752
issuance 6749
bon@@ 6749
them@@ 6747
carrying 6744
Improve 6744
grade 6743
GP@@ 6743
consistency 6741
NATO 6738
helping 6736
market@@ 6735
ass 6733
confirmed 6730
58 6726
coordin@@ 6726
promis@@ 6721
owner 6720
claimed 6719
Funds 6718
tively 6718
Americans 6717
fill 6712
techniques 6711
considerable 6706
week 6706
agriculture 6706
utilities 6705
investigative 6703
Civil 6702
interpretation 6701
facing 6699
severe 6699
trained 6699
eliminated 6698
hand@@ 6696
righ@@ 6694
ash@@ 6691
entering 6690
decade 6690
aged 6690
Credit 6685
cros@@ 6683
PM@@ 6681
short-term 6677
acceptable 6676
pers 6673
placement 6673
jo@@ 6672
fra@@ 6667
FY2016 6667
Up@@ 6665
ei@@ 6665
emerging 6663
About 6659
pursue 6659
Actions 6658
64 6653
discrimination 6651
cable 6648
appropriately 6644
acking 6642
link 6641
Non@@ 6640
ong@@ 6639
Car@@ 6636
new@@ 6636
communic@@ 6635
proliferation 6634
nonfederal 6634
mentary 6633
ord@@ 6626
plus 6621
thor@@ 6619
Advisory 6616
administer 6615
SO@@ 6611
ru@@ 6610
optim@@ 6610
pricing 6608
advice 6604
—a 6604
tit@@ 6603
press 6601
regul@@ 6598
Requi@@ 6598
Naval 6596
ton@@ 6593
entitled 6588
stop 6587
cam@@ 6583
Rel@@ 6582
deliver 6580
pressure 6580
met@@ 6580
PP 6579
elec@@ 6578
substance 6573
containing 6567
Gre@@ 6567
Dec@@ 6566
sic 6564
row 6564
secur@@ 6564
notification 6561
occurs 6557
ces 6556
porters 6550
ust@@ 6550
Article 6548
broadband 6548
guid@@ 6545
compl@@ 6544
eption 6543
suppl@@ 6538
LE@@ 6538
ef 6537
focuses 6535
PD@@ 6535
ories 6530
immediately 6530
periodic 6529
acres 6528
ned 6519
block 6513
cut 6511
om 6509
frequency 6509
default 6506
bri@@ 6504
D-9@@ 6504
ology 6495
Amtrak 6494
acted 6493
Through 6492
analyzing 6492
decades 6490
roughly 6489
Contrac@@ 6487
solutions 6486
Could 6485
ain@@ 6481
veteran 6481
BA 6480
FS 6480
57 6479
receipt 6476
career 6473
judge 6472
CP 6472
marks 6468
coal 6467
Form 6463
behavior 6462
vendors 6462
Shi@@ 6461
tro@@ 6460
meets 6459
consul@@ 6458
ound@@ 6456
stri@@ 6454
den 6451
acquisitions 6450
FY2005 6442
Employ@@ 6441
possibility 6440
Conclusions 6440
Base 6437
onal 6434
registered 6434
fis@@ 6433
commands 6432
FP@@ 6429
to-@@ 6423
Improvement 6422
FPS 6422
oration 6421
NIH 6420
weather 6420
Nevertheless 6418
telecommunications 6411
review@@ 6408
chain 6408
median 6408
processed 6404
selecting 6404
OM@@ 6403
conventional 6400
inconsistent 6399
initi@@ 6399
exceptions 6397
outlined 6394
OP 6391
Child 6388
away 6385
cities 6384
Ab@@ 6382
e- 6382
Bri@@ 6381
NR@@ 6380
encing 6378
situations 6374
ili@@ 6373
affir@@ 6370
ED 6370
extension 6369
renew@@ 6368
govern@@ 6360
protections 6360
adap@@ 6360
differ 6357
accountable 6356
sign 6351
treated 6350
Regulatory 6349
FHWA 6347
OSHA 6347
stan@@ 6346
mod@@ 6340
independently 6338
ood 6338
EC 6331
appeal 6330
63 6321
union 6320
mortgages 6320
follow-up 6319
speed 6314
RI@@ 6309
sk@@ 6308
weight 6303
ratings 6301
PBGC 6300
-term 6297
functional 6296
Loan 6294
e.The 6291
67 6291
dr@@ 6289
projections 6289
Fir@@ 6287
licensing 6284
sibility 6281
eous 6281
sements 6280
investig@@ 6278
Cha@@ 6276
appeared 6275
presents 6267
itor 6266
FY2017 6266
complexity 6264
salaries 6263
conducts 6262
Currently 6258
abor@@ 6258
atives 6254
vulnerable 6253
respon@@ 6251
porting 6245
Access 6245
Reports 6245
medi@@ 6242
Enh@@ 6240
reserv@@ 6239
sponsor 6237
GA@@ 6237
TR@@ 6234
programming 6232
AN@@ 6232
connection 6229
accomplish 6227
zone 6226
lacked 6225
normal 6224
vessels 6223
educ@@ 6222
acquire 6222
I-@@ 6222
dedicated 6222
bil@@ 6220
Georgia 6213
questionnaire 6204
serves 6203
DEA 6201
scores 6198
Ap@@ 6197
Pur@@ 6191
Constitution 6187
alleged 6186
airline 6186
definitions 6185
sex 6182
package 6182
chi@@ 6182
lea@@ 6180
residential 6180
bul@@ 6176
commodity 6173
WIC 6172
Commissioner 6168
commun@@ 6167
maritime 6167
ore 6167
stages 6166
susp@@ 6165
deadline 6165
Nations 6163
conflicts 6163
fields 6162
character@@ 6161
Cap@@ 6161
deal 6159
Or@@ 6156
ported 6154
instructions 6153
unions 6151
aps 6150
2.5 6148
decide 6147
-0@@ 6147
GS@@ 6146
reflects 6145
stric@@ 6143
connected 6143
payroll 6142
cooperative 6140
governmentwide 6139
lers 6137
health@@ 6136
ort 6134
ers.@@ 6132
regularly 6131
ound 6131
restricted 6128
vulnerability 6126
utting 6125
fre@@ 6124
CV@@ 6123
CRA 6123
freight 6122
clari@@ 6120
mass 6115
River 6114
400 6113
rejected 6112
s. 6112
able@@ 6111
administering 6109
membership 6108
assi@@ 6108
competing 6104
des@@ 6102
trial 6102
77 6102
allocations 6098
fiel@@ 6097
expense 6097
E-@@ 6094
Asia 6088
television 6084
measuring 6083
charter 6079
top@@ 6075
peti@@ 6073
challenging 6071
eli@@ 6069
512@@ 6069
mat@@ 6067
annu@@ 6065
the-@@ 6062
codes 6060
FTC 6055
origin@@ 6054
justice 6051
for-@@ 6051
closing 6050
preparation 6049
UN 6048
willing 6047
limiting 6047
fundamental 6045
tations 6042
grounds 6041
quarters 6034
oriented 6034
divi@@ 6033
AF@@ 6032
commerce 6031
dispute 6030
considers 6029
mig@@ 6029
reserves 6027
currency 6027
USCIS 6027
PRC 6027
acks 6025
promoting 6025
counseling 6024
follows 6023
700 6022
tan@@ 6017
propos@@ 6013
Congres@@ 6011
condi@@ 6011
preced@@ 6010
fire@@ 6010
soldiers 6009
tioning 6008
weeks 6006
Logistics 6005
mean 6003
sted 6003
noncompliance 5999
Within 5997
exp@@ 5996
collabor@@ 5996
receipts 5995
29@@ 5993
greatest 5990
depend 5990
estim@@ 5989
depends 5989
want 5988
dest@@ 5987
AP 5986
producing 5985
lev@@ 5984
disasters 5984
not@@ 5983
full-time 5983
thwest 5979
shipments 5979
ased 5978
alities 5978
outstanding 5978
surveyed 5976
reli@@ 5975
Comptroller 5974
ranged 5973
rig@@ 5971
78 5967
ail 5966
offering 5966
hy@@ 5965
copyright 5962
net@@ 5962
ded@@ 5959
rein@@ 5956
explain 5954
Particip@@ 5954
County 5954
Children 5953
copy 5953
pul@@ 5952
vers@@ 5952
ten 5952
logistics 5952
repe@@ 5951
arch@@ 5950
adults 5950
travel@@ 5949
tle 5948
doub@@ 5946
mix 5946
MDA 5943
71 5942
Reporting 5936
ban 5936
sourcing 5934
certi@@ 5933
licenses 5932
examining 5930
satisfaction 5929
supervis@@ 5928
Armed 5927
borrower 5926
sea@@ 5919
adequacy 5919
wish 5918
regulate 5918
remove 5918
timeliness 5918
stay 5917
waters 5914
DR@@ 5914
exchanges 5912
ade 5911
Regarding 5910
adding 5910
School 5908
explicitly 5907
great 5905
restric@@ 5905
ND@@ 5904
Bas@@ 5903
Income 5902
Overall 5902
undertaken 5900
maintains 5899
CT@@ 5898
incomplete 5897
examiners 5892
Wor@@ 5891
wait 5887
hin@@ 5887
contributors 5885
simul@@ 5884
asting 5876
judgment 5875
eled 5875
regi@@ 5875
varying 5874
Local 5873
Departments 5871
disabled 5869
there@@ 5868
exc@@ 5868
approving 5863
advantages 5861
head@@ 5860
ation—@@ 5859
transport 5859
Mat@@ 5858
1.5 5857
termination 5856
IMF 5856
import 5855
sul@@ 5855
emphasized 5855
count 5853
sampling 5853
policymakers 5850
book 5849
Patrol 5847
derived 5842
modify 5840
gains 5838
hard 5835
istic 5834
Su@@ 5832
indirect 5831
bond 5828
reference 5827
raising 5826
perspective 5826
on.@@ 5824
BRAC 5824
enrollees 5823
expert 5820
sal@@ 5818
mining 5815
activ@@ 5814
e-based 5813
Uni@@ 5811
verse 5811
vers 5811
gg@@ 5809
draw@@ 5809
don@@ 5809
firearms 5808
opposed 5807
Prevention 5806
clients 5806
attempted 5803
readily 5802
transformation 5799
samples 5799
Clean 5797
somewhat 5795
argu@@ 5790
mine 5788
sures 5787
association 5787
hire 5787
ils 5786
aches 5786
Following 5786
s.We 5784
Fin@@ 5779
NF@@ 5779
participant 5777
promotion 5774
ce@@ 5774
ner@@ 5774
depot 5774
OI@@ 5774
divided 5773
exercises 5773
tiveness 5773
consists 5772
resi@@ 5770
missiles 5770
risk@@ 5767
stating 5767
72 5763
cal@@ 5759
Pol@@ 5758
DB@@ 5757
leases 5757
experiences 5754
returned 5753
Comm@@ 5753
connec@@ 5752
jec@@ 5751
considerations 5749
agenci@@ 5749
tend 5748
eable 5748
prohibit 5745
revise 5745
los@@ 5738
targeting 5738
ills 5735
Appro@@ 5734
pedi@@ 5731
calculate 5731
other@@ 5728
Coordin@@ 5727
xes 5726
defines 5724
discipl@@ 5722
contracted 5721
ept 5719
surg@@ 5715
Progress 5715
quanti@@ 5714
Three 5714
pos@@ 5712
pris@@ 5711
religious 5708
rul@@ 5707
attributed 5707
ranging 5705
efficiently 5705
on-site 5705
opposition 5704
Over@@ 5699
Comman@@ 5698
deduc@@ 5695
specialists 5693
AL@@ 5692
know@@ 5691
control@@ 5691
permission 5690
110 5688
score 5688
session 5687
Regulation 5687
ough 5686
refer 5684
ods 5682
execu@@ 5679
live 5676
Bal@@ 5676
sw@@ 5675
Ob@@ 5674
wit@@ 5673
sum@@ 5669
decision@@ 5669
ingly 5668
Address 5664
ve-@@ 5661
NIST 5660
ST@@ 5659
consensus 5658
boards 5657
ACA 5653
sist@@ 5652
boo@@ 5651
hired 5647
resid@@ 5646
monetary 5644
leverage 5639
preventing 5637
esses 5636
cen@@ 5634
starting 5634
ase 5632
Compliance 5632
Work 5632
choice 5630
viol@@ 5630
hear@@ 5628
Reg@@ 5627
hal@@ 5626
Guidance 5625
anticip@@ 5623
flows 5621
tioned 5620
went 5619
eliminating 5618
hydro@@ 5617
reasonably 5612
39@@ 5612
Changes 5611
peer 5604
Altern@@ 5601
aying 5601
Finance 5600
draw 5598
ys 5598
sible 5597
periodically 5596
Direc@@ 5596
ressed 5593
forc@@ 5592
outpatient 5592
59 5591
satisfied 5590
thy 5586
CAP 5583
repayment 5582
water@@ 5582
commodities 5581
bankruptcy 5581
justification 5578
OA 5576
Mis@@ 5574
ed—@@ 5572
Immigration 5572
corporation 5572
request@@ 5570
defendant 5568
Commun@@ 5568
person@@ 5567
ired 5566
Selected 5565
Medic@@ 5565
Puerto 5564
indic@@ 5562
Korean 5562
estate 5561
alties 5560
eld 5558
arre@@ 5557
preci@@ 5556
Committees 5554
solely 5554
slightly 5553
lacks 5553
cru@@ 5551
Pat@@ 5551
diseases 5551
actively 5550
dep@@ 5549
Pr@@ 5549
registr@@ 5549
modification 5546
direc@@ 5546
ming 5545
classification 5543
Third 5540
Consolidated 5540
forth 5539
ries 5534
after@@ 5531
covering 5528
humanitarian 5526
tory 5524
demands 5519
independence 5518
ross 5517
administr@@ 5517
designation 5514
duplication 5514
ace 5512
48@@ 5512
Industry 5510
heads 5509
acquired 5506
answer 5506
FY2004 5506
HS 5503
discusses 5503
trend 5498
preference 5497
10.@@ 5497
vals 5495
shares 5494
deleg@@ 5491
promo@@ 5490
defining 5490
sy@@ 5489
IA@@ 5487
ches 5486
handling 5484
arity 5484
Under@@ 5484
John 5483
recognition 5479
invo@@ 5479
stakeholder 5479
Native 5474
meaning 5473
can@@ 5472
participated 5472
Q 5470
digital 5469
plat@@ 5468
recover 5467
responsi@@ 5467
tivity 5466
Fun@@ 5466
simply 5465
FERC 5464
commented 5462
vest@@ 5459
manufacturer 5459
minist@@ 5459
abroad 5456
grantee 5455
AA 5454
adjust 5453
facilit@@ 5453
three-@@ 5452
Tim@@ 5451
bases 5451
ily 5450
Their 5449
updates 5449
nam@@ 5447
apprais@@ 5447
2020 5446
Status 5442
relies 5441
ox@@ 5440
mobile 5438
Rights 5436
nation@@ 5433
Deci@@ 5432
chemicals 5430
wind 5426
any@@ 5425
ease 5425
pays 5424
inst@@ 5424
26@@ 5422
troops 5422
cybersecurity 5420
pointed 5416
contributing 5415
crude 5413
WA 5412
rehabilitation 5411
1980s 5409
RT 5408
representation 5405
Mic@@ 5403
– 5403
words 5401
Vietnam 5401
RS@@ 5400
74 5398
Cont@@ 5396
topics 5393
negotiated 5390
chief 5388
productivity 5388
manual 5388
reti@@ 5387
African 5386
Urban 5385
supplement 5384
tom@@ 5384
communicate 5384
impro@@ 5381
allocate 5381
73 5380
pi@@ 5379
Lim@@ 5378
mentation 5377
posi@@ 5375
minim@@ 5373
attle 5372
udes 5371
web@@ 5370
ane 5369
powers 5368
helps 5368
routine 5368
bal@@ 5366
vel@@ 5365
contents 5362
contain@@ 5361
tion.@@ 5360
MT@@ 5360
restructuring 5359
Arizona 5358
ishing 5356
ference 5352
by-@@ 5351
ore@@ 5349
commission@@ 5347
harm 5347
Sur@@ 5346
waivers 5346
poses 5344
appointment 5339
sustained 5334
ored 5332
Wat@@ 5332
sett@@ 5332
modern@@ 5331
cs 5328
GAO-@@ 5328
mp@@ 5327
ba@@ 5326
rapid 5326
ial 5322
solution 5318
routinely 5315
transi@@ 5310
guarantees 5310
1988 5306
graph@@ 5305
affili@@ 5305
litigation 5303
terrorists 5302
directs 5300
ress 5293
RT@@ 5292
ey 5290
accompanied 5286
legally 5286
ments.@@ 5286
moved 5285
Recent 5285
room 5285
sour@@ 5282
e.In 5278
urg@@ 5278
interstate 5277
easily 5276
NO@@ 5276
tw@@ 5275
offici@@ 5274
ental 5273
clo@@ 5273
Mexican 5269
tures 5268
host 5265
e-mail 5265
attorneys 5264
Highway 5263
FRA 5263
ATF 5262
illustr@@ 5261
usive 5259
college 5257
path@@ 5256
Ful@@ 5254
DI 5254
claim@@ 5253
weak@@ 5252
ign@@ 5250
guaranteed 5248
postal 5247
privil@@ 5246
DLA 5243
gave 5241
threat@@ 5239
bers 5238
inated 5236
0s 5236
brea@@ 5234
auditors 5234
il 5233
clearance 5233
Fort 5230
feasibility 5230
AS 5229
pass 5225
,0@@ 5225
psy@@ 5225
Private 5224
en-@@ 5223
imported 5223
s/@@ 5223
cyber 5223
.... 5222
prosec@@ 5222
Incre@@ 5220
pilots 5220
integrate 5218
wat@@ 5214
Accoun@@ 5213
mor@@ 5212
public@@ 5212
near@@ 5212
prohibits 5211
hed 5211
Katrina 5210
Los 5208
gs 5206
proceeds 5205
CD 5205
passage 5202
dered 5202
ut 5201
Accordingly 5201
reason@@ 5199
chose 5198
conclusion 5195
reaching 5194
elderly 5193
Partnership 5193
perceived 5192
kets 5190
Audit 5189
observations 5186
started 5186
offenses 5184
damages 5184
driven 5184
Senior 5183
front 5181
Saf@@ 5179
domin@@ 5178
thousands 5178
alli@@ 5171
technological 5171
cuts 5168
desired 5166
profits 5166
statistics 5162
Super@@ 5162
millions 5161
ital 5161
operates 5160
probability 5160
ort@@ 5159
incomes 5158
ready 5155
flu@@ 5154
teachers 5154
cri@@ 5152
attempts 5152
ster 5151
qualifying 5151
/ 5151
Si@@ 5150
109@@ 5150
patterns 5146
ock@@ 5145
alleg@@ 5142
Schedule 5141
phases 5140
scenarios 5139
licensed 5138
variation 5136
Vi@@ 5135
votes 5135
usion 5133
Sp@@ 5132
doc@@ 5130
roads 5130
Ara@@ 5130
ga@@ 5126
categor@@ 5125
cost-effective 5124
supervisory 5122
legacy 5121
amend 5120
ually 5119
an-@@ 5118
turing 5117
execution 5115
lim@@ 5115
investigators 5113
High 5113
Appeals 5112
Es 5112
inclusion 5111
sional 5110
worth 5110
set@@ 5108
long-@@ 5104
worldwide 5104
acti@@ 5104
DR 5103
struc@@ 5102
ack 5100
contamination 5100
cy@@ 5099
len@@ 5098
NA 5096
achievement 5095
BOP 5094
Terrorism 5093
lowest 5093
stand@@ 5090
aside 5086
23@@ 5086
NM@@ 5086
buil@@ 5084
eries 5084
names 5083
//www.@@ 5080
hib@@ 5079
Ric@@ 5077
ump 5077
Sol@@ 5074
mentally 5074
Incl@@ 5073
spread 5073
1989 5072
Oc@@ 5069
tox@@ 5068
accru@@ 5066
retained 5063
ected 5063
Until 5062
meaningful 5062
Future 5062
ation-@@ 5059
—that 5058
critic@@ 5057
say 5056
mark 5054
shel@@ 5052
auth@@ 5050
standard@@ 5049
develop@@ 5047
83 5046
unlikely 5045
enterprises 5040
stabil@@ 5040
rising 5039
systematic 5039
Fl@@ 5037
clos@@ 5035
ond@@ 5033
marine 5033
dings 5031
tain@@ 5028
vir@@ 5028
covers 5028
equi@@ 5028
fourth 5028
encouraged 5026
defin@@ 5024
Limited 5024
Continu@@ 5023
benefit@@ 5022
68 5022
vol@@ 5022
ution 5019
oral 5015
mutual 5015
Ba@@ 5015
revisions 5012
pandemic 5011
notify 5009
erg@@ 5006
BIA 5006
weigh@@ 5001
problem@@ 5001
hazards 4999
constitute 4997
Others 4997
pollution 4997
rose 4995
bureau 4993
Working 4992
High@@ 4990
Rather 4989
Colombia 4988
ession 4987
salary 4985
sustain 4984
accompl@@ 4984
FWS 4984
Foundation 4982
occurring 4977
lig@@ 4977
seeks 4977
commanders 4976
Practices 4973
enhancing 4973
card@@ 4973
—to 4972
theft 4971
resul@@ 4969
Area 4967
da 4965
gran@@ 4963
liabilities 4963
possibly 4961
ordered 4961
Anti@@ 4959
tible 4959
feder@@ 4958
,00@@ 4958
subsidized 4957
Fed@@ 4956
identifi@@ 4951
yield 4950
eral 4947
Rico 4947
shortages 4947
aug@@ 4945
combatant 4945
Ta@@ 4944
affordable 4943
tal@@ 4942
compete 4942
Em@@ 4941
79 4941
movement 4940
ced 4938
satellites 4936
ls 4935
conven@@ 4933
demonstr@@ 4932
disclose 4929
provi@@ 4929
courses 4929
AB@@ 4928
Multi@@ 4927
WH@@ 4926
bing 4925
action@@ 4923
4,@@ 4920
engine@@ 4920
abilities 4918
electronically 4918
asser@@ 4915
practical 4914
search@@ 4914
spec@@ 4911
es.To 4910
allowance 4909
ly@@ 4906
ption 4906
entr@@ 4905
ff@@ 4902
acquiring 4901
long-standing 4901
Technical 4897
voter 4896
quantity 4896
88 4895
serv@@ 4895
bilities 4895
motor 4894
xim@@ 4894
replaced 4893
timing 4892
variables 4892
arm 4890
bol@@ 4890
presum@@ 4889
Facilities 4889
tions.@@ 4887
retro@@ 4886
radio 4885
tal 4882
Rules 4881
elect 4879
uncertain 4879
r. 4878
standardized 4877
ching 4876
inees 4874
satisfy 4874
Needs 4874
Administrative 4873
Block 4873
diversity 4872
gasoline 4872
TRICARE 4872
deploy 4872
kind 4870
chapter 4870
experi@@ 4869
specialized 4869
polic@@ 4868
suit 4866
focusing 4866
stable 4864
Employment 4860
merg@@ 4859
reliance 4854
informal 4854
NSF 4854
deferred 4851
individu@@ 4850
distingu@@ 4849
MP 4849
came 4848
voc@@ 4848
ese 4848
Mission 4843
effor@@ 4839
supervisors 4838
adj@@ 4835
dro@@ 4835
1986 4830
cas@@ 4827
candidate 4827
etary 4827
sustainable 4827
Workforce 4825
saf@@ 4820
tious 4818
comparing 4818
War@@ 4817
chang@@ 4815
professionals 4815
Family 4813
LEAs 4813
Consumer 4812
Hurricane 4811
preserv@@ 4811
requesting 4811
600 4807
regime 4806
Israel 4805
Power 4803
prob@@ 4802
RL@@ 4800
Colorado 4800
box 4799
Communications 4798
hor@@ 4797
eventually 4796
duc@@ 4794
specialty 4794
rati@@ 4792
sm@@ 4790
nationally 4788
dental 4788
homeless 4788
cultural 4787
interc@@ 4785
duration 4784
random 4784
NT@@ 4784
soon 4783
negoti@@ 4783
Sum@@ 4783
ty-@@ 4783
2,000 4782
DC@@ 4782
pool 4781
uniform 4780
ams 4779
iled 4779
ret 4776
wildlife 4773
destruction 4771
totaling 4771
widespread 4770
precl@@ 4769
decision-making 4769
promulg@@ 4767
supervision 4766
resident 4765
directive 4765
him 4764
mem@@ 4763
ero@@ 4762
intervention 4762
Carolina 4761
poss@@ 4761
scenario 4761
wild@@ 4761
ere@@ 4760
declared 4760
posing 4759
investigate 4757
department@@ 4757
borne 4757
5-year 4757
Operation 4756
utili@@ 4753
animals 4753
disrup@@ 4752
nesses 4752
4th 4752
CAA 4748
81 4744
ations—@@ 4744
ama 4743
fell 4740
fulfill 4740
centralized 4740
erv@@ 4738
OT 4738
Typ@@ 4737
hood 4737
discharge 4736
radiation 4736
Indi@@ 4732
off-@@ 4732
Laboratory 4732
voters 4730
materi@@ 4729
backlog 4728
expired 4724
.Some 4723
Exchange 4723
Relief 4723
Party 4721
metropolitan 4721
safeguards 4720
USTR 4720
expec@@ 4719
amen@@ 4718
retirees 4718
Cam@@ 4717
fare 4716
amb@@ 4715
park 4714
ick@@ 4713
commerci@@ 4712
sense 4711
leaving 4710
Cre@@ 4708
ison 4708
outlays 4707
surrounding 4706
asylum 4705
MI 4705
150 4702
Bar@@ 4697
author@@ 4695
Mal@@ 4695
Sing@@ 4694
HIV/AIDS 4694
classi@@ 4691
habitat 4690
ensions 4689
fraudulent 4689
Democr@@ 4688
Unlike 4687
IHS 4687
formally 4686
draf@@ 4684
dealers 4680
Afghan 4680
opinions 4679
Do@@ 4679
Counsel 4679
engagement 4677
preferred 4677
tot@@ 4673
Products 4673
applic@@ 4672
comes 4670
fall@@ 4668
outh 4667
follow@@ 4667
magnitude 4667
adult 4666
ums 4664
49@@ 4662
compar@@ 4658
proceed 4657
break@@ 4656
refers 4655
enforc@@ 4654
Clinton 4652
puts 4652
highlighted 4650
.A 4648
Test 4648
shor@@ 4646
subsidi@@ 4646
AOC 4646
stor@@ 4644
Ex-Im 4644
conjunction 4642
race 4641
becomes 4641
uding 4640
engine 4639
Clause 4638
Market 4638
allot@@ 4637
directives 4631
visibility 4631
fici@@ 4630
s— 4629
ana 4628
Pric@@ 4627
alizing 4626
lements 4625
NFIP 4622
showing 4621
Ear@@ 4620
summar@@ 4617
Ban@@ 4617
frequent 4615
loo@@ 4615
capit@@ 4615
apping 4614
Class 4614
tiv@@ 4614
multilateral 4613
feed@@ 4613
extre@@ 4612
drinking 4612
St. 4610
jointly 4610
ep 4609
interview 4609
controlling 4607
Potential 4606
MH@@ 4606
figures 4605
rest@@ 4604
use@@ 4603
warning 4603
assisted 4603
12.@@ 4603
ith 4602
Phase 4601
87 4600
fut@@ 4600
discre@@ 4597
surplus 4596
emerg@@ 4595
sum 4591
Minister 4589
Sec 4588
launched 4588
Academy 4587
Vis@@ 4586
intends 4585
cial 4582
mul@@ 4581
limitation 4580
stru@@ 4580
farm@@ 4580
bound 4579
construc@@ 4576
calling 4574
Mil@@ 4571
accessible 4568
appa@@ 4567
deduction 4567
Maryland 4566
locate 4566
Network 4565
clause 4563
lob@@ 4563
Har@@ 4563
grown 4563
Senators 4562
fat@@ 4562
diverse 4560
two-@@ 4559
preemp@@ 4558
substances 4558
offs 4558
Pan@@ 4557
Long@@ 4556
fusion 4556
FY2003 4555
lay@@ 4555
nutrition 4554
compens@@ 4553
validation 4550
Ham@@ 4549
num@@ 4546
ancing 4546
FY200@@ 4546
Impact 4545
localities 4545
PB@@ 4544
tis@@ 4543
And 4538
true 4538
ennial 4538
filled 4535
withdraw@@ 4533
versus 4533
intensive 4532
ure@@ 4532
ator@@ 4531
ege 4530
Framework 4530
milk 4530
CR@@ 4530
conversion 4529
giving 4529
treaty 4529
advoc@@ 4528
neu@@ 4528
SC 4528
leader 4526
Convention 4524
Legislative 4524
behind 4522
iter@@ 4521
Provisions 4521
offenders 4517
fail 4516
quantities 4516
Jo@@ 4514
invest 4514
pun@@ 4511
injuries 4511
questioned 4511
vendor 4510
collects 4510
listing 4508
government@@ 4506
intermedi@@ 4506
feet 4506
elected 4505
learning 4505
bid 4504
rit@@ 4503
cir@@ 4503
English 4502
advertising 4502
instruction 4501
counted 4501
P.@@ 4501
exit 4501
solic@@ 4499
Associ@@ 4497
sides 4497
rements 4497
unnecessary 4496
completeness 4496
chair 4495
alist 4494
ost 4492
formation 4492
universities 4490
Germany 4488
shortfalls 4488
citizen 4487
recei@@ 4486
syn@@ 4486
modu@@ 4486
Ca@@ 4485
ust 4484
FL@@ 4484
yed 4482
pri@@ 4478
edge 4478
overlap 4475
prospective 4474
whereas 4472
summarizes 4471
calculation 4471
ineligible 4468
eed@@ 4467
efs 4467
ities.@@ 4467
band 4466
.For 4466
output 4465
edi@@ 4465
liber@@ 4462
Off@@ 4462
Inc. 4462
Cy@@ 4462
extra@@ 4459
ov@@ 4456
broadly 4456
Bur@@ 4455
dissemin@@ 4454
detention 4454
Before 4452
ome@@ 4452
da@@ 4449
FMS 4447
sea 4445
als.@@ 4445
//www.gao.gov.If 4443
accompanying 4442
crops 4442
level@@ 4441
ts—@@ 4441
attorney 4440
tin 4439
corruption 4438
arrangement 4438
finalized 4438
tou@@ 4438
ple@@ 4437
born 4437
arbit@@ 4435
ruling 4434
111 4433
counts 4432
Mi@@ 4431
upgrades 4428
val@@ 4427
flights 4426
113 4425
economies 4421
classes 4417
aris@@ 4415
minor 4415
Law@@ 4415
played 4414
heavily 4414
Histor@@ 4410
drivers 4410
totaled 4409
wid@@ 4408
1980 4406
Can 4406
writing 4405
inpatient 4405
Estim@@ 4404
OCC 4403
stored 4402
radioactive 4401
clean 4400
Conference 4399
negotiating 4399
fighting 4397
Contract 4397
stimul@@ 4396
cat@@ 4395
Impro@@ 4395
inde@@ 4392
84 4392
ham@@ 4392
Between 4391
-1 4391
cham@@ 4389
VII 4389
Coordination 4388
tile 4386
Assess@@ 4386
ition 4385
measu@@ 4385
sid@@ 4385
Land 4385
expedited 4385
Initi@@ 4384
financed 4384
that@@ 4383
Annual 4383
acceptance 4381
az@@ 4381
operator 4381
railroads 4379
ications 4377
describing 4377
gen 4377
gh@@ 4375
perspectives 4374
ention 4373
cies 4373
ounded 4372
arise 4372
tons 4371
Bill 4371
Individuals 4371
society 4370
ems 4368
collaborative 4368
rapidly 4366
Illinois 4365
IM@@ 4364
historically 4362
perhaps 4362
Only 4362
inal 4361
HR@@ 4359
elines 4359
To@@ 4358
assume 4358
automatically 4357
allegations 4356
monitors 4356
reconc@@ 4355
Standard 4354
advocacy 4354
tionary 4353
bed 4353
Objectives 4353
recruiting 4351
scientists 4350
terminated 4349
itations 4347
69 4347
versions 4347
continuous 4344
gall@@ 4344
prof@@ 4343
allowances 4343
protective 4342
wanted 4342
arg@@ 4342
prioritize 4342
eds 4341
Privacy 4341
one-third 4340
82 4338
Projects 4338
gives 4336
ire 4336
buy 4334
Rural 4333
consum@@ 4333
forest 4332
112 4330
fth 4330
frag@@ 4330
Conservation 4330
Home 4330
indicating 4329
testified 4329
stream@@ 4329
sizes 4329
risk-based 4328
visas 4327
resour@@ 4326
Any 4325
FMCSA 4325
tel@@ 4324
strengthening 4319
destro@@ 4317
asserted 4317
CFTC 4317
.go@@ 4317
GHG 4317
ides 4316
dang@@ 4314
thresholds 4306
uter 4304
save 4304
assign@@ 4303
fron@@ 4302
broadcast 4302
valu@@ 4298
Directorate 4298
treat 4297
FY2002 4295
emission 4295
generating 4293
OR@@ 4292
Integrated 4292
ority 4290
separation 4289
map 4289
Western 4288
cyber@@ 4288
legitimate 4287
Te@@ 4285
influenza 4285
third-party 4284
knowledgeable 4284
bid@@ 4282
WIA 4281
summer 4280
present@@ 4278
leasing 4278
computers 4278
stream 4274
Supplemental 4273
selling 4272
Fed 4270
NW 4270
illing 4269
developments 4268
Great 4265
restrict 4265
assignment 4264
Start 4262
Bl@@ 4260
thought 4260
96 4260
Does 4260
favor 4259
grow 4258
prospec@@ 4258
TR 4257
exemptions 4256
prec@@ 4254
prohibition 4254
recover@@ 4253
executives 4253
NHTSA 4252
sl@@ 4250
ros@@ 4250
ites 4250
existence 4247
co-@@ 4247
nibus 4246
mark@@ 4245
differenti@@ 4245
suits 4245
begins 4244
systematically 4244
HA@@ 4244
lia@@ 4243
ador 4239
House-passed 4238
1.2 4237
wireless 4237
isol@@ 4235
index 4234
fru@@ 4232
11.@@ 4231
ES 4231
soci@@ 4230
negotiate 4230
tax-@@ 4230
foundation 4229
Val@@ 4229
tili@@ 4227
calculations 4227
accommodate 4227
express 4226
portions 4226
tionally 4225
The@@ 4224
immun@@ 4224
cau@@ 4222
master 4222
ners 4219
deal@@ 4219
hing 4218
.According 4216
tran@@ 4213
Procurement 4212
economically 4212
mostly 4210
permitting 4209
Sci@@ 4208
interoperability 4207
Ds 4206
ublic@@ 4205
Recon@@ 4203
EP 4203
procedural 4202
CSE 4202
validate 4202
democracy 4201
owed 4199
submissions 4199
86 4198
constant 4198
hundreds 4197
Register 4197
tariff 4196
varies 4194
Introduction 4189
reconstruction 4187
Stud@@ 4187
occa@@ 4185
Investig@@ 4185
ograph@@ 4185
Flight 4184
89 4183
compet@@ 4181
warrant 4179
DD 4179
Nonetheless 4178
Go@@ 4178
At@@ 4178
essentially 4177
railroad 4176
GS 4176
origin 4173
ication 4173
recruitment 4172
uranium 4172
pursu@@ 4171
Comb@@ 4171
record@@ 4171
ees 4168
forming 4165
unknown 4163
Staff@@ 4160
territories 4159
compact 4159
rers 4157
stop@@ 4157
appropri@@ 4157
divisions 4156
piec@@ 4156
peace 4156
MP@@ 4156
ws 4154
accumul@@ 4154
ur 4152
load 4151
notices 4149
feasible 4148
um-@@ 4146
surviv@@ 4143
BS@@ 4143
coastal 4142
retired 4140
illustrates 4139
ick 4138
mani@@ 4137
selec@@ 4136
Direct 4134
eter 4133
strength 4131
OSD 4131
commit 4130
Fac@@ 4128
Disaster 4128
Guide 4128
Rep@@ 4127
tains 4127
Ge@@ 4125
referrals 4125
occupations 4125
lining 4124
install@@ 4124
characterized 4123
MCC 4121
Australia 4120
centr@@ 4118
budgeting 4117
Sen@@ 4116
vaccine 4115
Oregon 4114
ose 4112
theast 4112
orial 4111
Examples 4110
altern@@ 4110
PP@@ 4110
10,000 4109
intr@@ 4109
Natural 4109
time-@@ 4108
ask 4107
Effective 4107
driver 4107
forced 4106
administers 4106
handle 4106
corro@@ 4105
Guam 4104
deliver@@ 4104
violent 4101
reauthorization 4100
Senate-@@ 4100
Op@@ 4099
itors 4099
Yet 4098
exclusion 4097
struction 4096
inventories 4095
heavy 4094
demographic 4094
stre@@ 4093
Comprehensive 4093
reconciliation 4092
oblig@@ 4092
prescribed 4091
35@@ 4091
atric 4091
single-@@ 4090
crew 4089
Readiness 4088
charg@@ 4085
Ver@@ 4085
alle@@ 4085
han@@ 4084
dence 4084
Rev@@ 4084
Produc@@ 4083
policy@@ 4083
initiate 4083
rated 4082
ands 4081
employ 4079
Radi@@ 4079
commen@@ 4076
innovation 4076
ops 4074
Evalu@@ 4074
summarized 4069
reactors 4068
Mor@@ 4067
Counter@@ 4067
links 4067
VBA 4067
9/11 4066
grew 4065
challenged 4063
illness 4063
Canadian 4062
greenhouse 4062
partial 4060
appropriate.@@ 4060
FP 4059
principle 4058
Concerns 4058
mary 4057
print 4057
Massachusetts 4055
Inde@@ 4055
fit 4054
pace 4054
GPRA 4054
ordin@@ 4052
lif@@ 4052
Reduction 4052
contaminated 4052
justi@@ 4051
disputes 4051
slow 4051
impair@@ 4050
year-@@ 4049
Banks 4049
Provide 4049
immigrant 4047
assault 4046
hazard 4046
rationale 4037
refu@@ 4037
culture 4037
+@@ 4035
list@@ 4034
two-thirds 4032
small@@ 4032
adjust@@ 4032
ing—@@ 4032
store 4031
broad@@ 4030
strike 4029
acade@@ 4029
FCS 4029
hard@@ 4027
HRSA 4027
methodologies 4026
Al 4025
road@@ 4024
interpreted 4024
Fran@@ 4023
ior@@ 4022
Wea@@ 4021
ices 4020
accoun@@ 4020
prosecution 4017
suspected 4017
Consid@@ 4017
exemp@@ 4016
existed 4016
leng@@ 4015
IAEA 4015
Ts 4015
cally 4013
CHIP 4013
Study 4012
declining 4012
alter 4012
indicator 4012
compliant 4011
encomp@@ 4008
billing 4007
simil@@ 4007
af@@ 4006
plac@@ 4006
stocks 4006
updating 4006
conting@@ 4004
depth 4004
Pres@@ 4003
ffic@@ 4001
speech 4000
Total 4000
marijuana 4000
false 3999
disagreed 3996
twice 3993
Secretaries 3993
Protec@@ 3993
wastewater 3993
timber 3993
contend 3992
mach@@ 3992
100,000 3992
sity 3992
subcommittee 3991
resolving 3990
Increased 3990
noting 3989
infring@@ 3989
appointments 3989
98 3988
method@@ 3988
marked 3987
treat@@ 3987
ina 3987
align 3987
load@@ 3986
ects 3986
manages 3986
lender 3985
BS 3985
concentr@@ 3983
brief 3982
FY2018 3979
CFO 3979
TV 3978
rou@@ 3977
distinc@@ 3975
relate 3975
ounds 3975
mal 3975
Judiciary 3974
ration 3974
Circular 3974
Louisiana 3973
Applic@@ 3973
ishment 3972
fir@@ 3972
gather 3969
proceeding 3967
pertaining 3967
Environment 3967
A. 3965
referral 3964
Prime 3964
encouraging 3964
releases 3964
donors 3963
choices 3963
offshore 3960
itte@@ 3959
test@@ 3958
suring 3957
documenting 3957
valuable 3956
perform@@ 3956
sitions 3956
correctly 3954
relation 3954
specifies 3954
iding 3954
eas@@ 3953
Cop@@ 3953
cot@@ 3953
1987 3952
sequestration 3952
chosen 3951
Mae 3951
stead@@ 3950
Pennsylvania 3949
calculating 3946
alty 3945
distribute 3944
Inc@@ 3943
adversely 3942
gation 3942
bloc@@ 3942
ented 3940
billions 3940
necess@@ 3939
drawn 3939
wel@@ 3937
aling 3937
DFAS 3937
sizing 3935
mandates 3933
issuers 3933
solv@@ 3933
contacts 3932
mature 3932
writ@@ 3931
overview 3930
sli@@ 3930
ash 3929
Monitoring 3929
Stat 3927
Gs 3926
council 3925
3,000 3924
certify 3924
victim 3923
latter 3922
explicit 3921
Preparedness 3921
99 3920
spac@@ 3920
allowable 3919
minent 3918
capita 3915
verified 3915
ers—@@ 3913
trade@@ 3913
counter 3911
saving 3911
Republic 3910
advocates 3908
season 3906
SS 3906
import@@ 3904
debts 3904
zes 3904
qui@@ 3901
ecosyst@@ 3901
illustrate 3901
nur@@ 3900
continuity 3900
progres@@ 3898
resc@@ 3898
ince 3897
disposition 3896
examines 3896
supplier 3896
dimin@@ 3894
Were 3894
deaths 3893
compli@@ 3893
bus 3893
Operational 3893
deliber@@ 3892
ony 3891
creates 3891
plo@@ 3891
Cour@@ 3888
icity 3888
120 3888
repository 3888
nomination 3888
Number 3886
depository 3886
TO 3885
800 3882
-wide 3882
Better 3882
301 3881
Construction 3881
arding 3881
smuggling 3880
Targ@@ 3880
amp 3877
distance 3875
doctrine 3875
aggres@@ 3875
Ministry 3874
orities 3873
undertake 3871
articles 3869
subscri@@ 3869
5,@@ 3868
noti@@ 3868
fri@@ 3867
deciding 3867
actu@@ 3865
utilized 3865
pric@@ 3865
ed.The 3864
Broad@@ 3863
1.1 3862
prepa@@ 3861
rel 3861
nit@@ 3861
reactor 3861
corresponding 3860
million@@ 3859
disclosures 3858
Legislation 3858
ply 3857
mixed 3857
dealing 3856
remote 3856
child@@ 3855
construct 3855
VAM@@ 3854
pp@@ 3852
CC@@ 3852
cent 3851
TVA 3851
gan@@ 3849
roc@@ 3848
fires 3847
sured 3846
greatly 3846
suspension 3845
ranges 3845
Us 3845
subsection 3842
91 3842
format 3842
coalition 3840
attributable 3838
Payments 3837
submitting 3837
Ter@@ 3836
vessel 3834
BI@@ 3834
Contribu@@ 3834
250 3831
plutonium 3830
secret@@ 3829
beneficial 3827
offic@@ 3826
missed 3825
automatic 3824
stress 3824
Dodd-Frank 3824
prud@@ 3823
duplic@@ 3823
computer@@ 3822
ts-@@ 3822
reorganization 3821
antly 3821
mosph@@ 3821
Manufac@@ 3819
FO@@ 3819
UAS 3819
attempting 3818
diplomatic 3817
purchas@@ 3817
audi@@ 3816
13.@@ 3814
endor@@ 3814
generic 3813
ans@@ 3813
human@@ 3813
tained 3811
ety 3811
birth 3810
Soviet 3809
fr@@ 3809
ual 3808
enforcing 3808
eted 3807
Develop@@ 3806
Police 3805
expended 3804
publication 3803
trust@@ 3803
intenti@@ 3801
alu@@ 3801
AG@@ 3799
CNMI 3799
western 3798
sement 3798
becoming 3797
claimants 3796
radi@@ 3794
sco@@ 3794
geograph@@ 3793
= 3793
notified 3792
gathered 3791
HC@@ 3790
Islands 3787
routes 3785
k-@@ 3784
out-of-@@ 3784
mag@@ 3783
Should 3783
Oil 3783
On@@ 3783
pers@@ 3782
motiv@@ 3781
comparisons 3780
favorable 3779
administrators 3779
Kingdom 3779
aci@@ 3777
ballistic 3776
Secret@@ 3775
OS 3775
innovative 3772
hu@@ 3770
modi@@ 3769
SES 3768
exercis@@ 3766
commissions 3766
Airport 3766
asive 3765
Freedom 3765
ater 3765
Issu@@ 3764
UI 3763
technolog@@ 3763
ACs 3763
oms 3762
sta@@ 3761
Presidential 3761
rid@@ 3760
ains 3759
vacc@@ 3758
Head 3758
ER 3758
Property 3757
Company 3756
broadc@@ 3756
tocol 3756
dropped 3755
minutes 3754
ces.@@ 3752
Michigan 3752
Reported 3752
star@@ 3752
complicated 3751
constructed 3751
composed 3751
securing 3751
clin@@ 3751
pestici@@ 3750
territory 3749
waiting 3749
TF 3749
OF@@ 3748
programmatic 3748
techn@@ 3747
DA@@ 3747
elsewhere 3745
Den@@ 3744
Thre@@ 3744
Due 3743
H.Rept 3743
towards 3742
que 3742
Aid 3742
hn@@ 3741
suspended 3741
caselo@@ 3741
ger 3740
1985 3739
laundering 3738
skilled 3738
dispar@@ 3737
o-@@ 3737
IF@@ 3737
Vo@@ 3733
brig@@ 3733
die 3732
Port@@ 3732
recommend@@ 3732
pursuing 3732
service-@@ 3732
Contacts 3729
facts 3728
eling 3728
efficiencies 3727
SSNs 3727
vil@@ 3724
Cuban 3723
tactical 3722
AQ@@ 3721
structural 3719
bulk 3719
tol@@ 3718
supple@@ 3718
statewide 3717
defen@@ 3716
atures 3715
holds 3715
Bel@@ 3715
quali@@ 3715
designing 3715
sou@@ 3714
announce 3713
Region 3712
descriptions 3712
and-@@ 3711
nationals 3711
Bio@@ 3711
programs.@@ 3710
MAP 3709
incl@@ 3708
removing 3706
catastrophic 3706
full-@@ 3705
integrating 3705
upgrade 3704
elev@@ 3704
Des@@ 3702
high-level 3702
spir@@ 3701
arge 3701
essions 3700
sove@@ 3699
ligh@@ 3698
vouchers 3698
hardware 3697
ratios 3696
helicop@@ 3695
lar 3693
reduces 3693
usage 3692
uring 3692
deploying 3692
RE 3692
50,000 3691
acceler@@ 3691
aband@@ 3690
narrow@@ 3689
90@@ 3689
Fs 3689
installed 3688
fighter 3686
discount 3685
program.@@ 3685
some@@ 3684
threatened 3683
affects 3682
NB@@ 3682
confirm 3681
Program@@ 3681
proficiency 3680
rants 3678
chan@@ 3678
substantive 3677
government-@@ 3677
Certain 3676
explan@@ 3676
validity 3675
avi@@ 3675
bodies 3674
ids 3674
pregn@@ 3673
articul@@ 3671
instruments 3671
97 3670
nor@@ 3670
—which 3669
influ@@ 3668
Modernization 3668
spouse 3667
diver@@ 3667
earing 3666
Procedures 3666
Critical 3666
reb@@ 3665
WS 3665
He@@ 3664
maximize 3664
Exc@@ 3663
hon@@ 3662
aggreg@@ 3662
adv@@ 3661
cho@@ 3661
ium 3661
poultry 3660
cumulative 3660
billi@@ 3660
94 3659
realistic 3659
view@@ 3659
Change 3657
eci@@ 3657
modeling 3657
Ste@@ 3656
custody 3654
114 3653
manned 3653
Asian 3653
trillion 3653
awarding 3653
excluding 3652
Haiti 3652
requ@@ 3652
vic@@ 3651
Grow@@ 3650
organ@@ 3650
acknowledg@@ 3648
clean@@ 3647
BM@@ 3646
discrimin@@ 3645
qual@@ 3645
1.3 3643
petroleum 3643
512-6000 3643
screen@@ 3642
ete 3641
sole 3640
versal 3640
contamin@@ 3640
tables 3637
ansas 3636
alls 3635
ene@@ 3634
preval@@ 3634
Analy@@ 3634
risk-@@ 3634
irs 3633
resolutions 3632
placing 3632
abo@@ 3632
Comple@@ 3632
Interagency 3632
veget@@ 3632
6,@@ 3630
aly@@ 3628
cu@@ 3628
Ohio 3627
overpayments 3627
Autom@@ 3625
learn 3623
repairs 3623
ous@@ 3621
Field 3621
Determin@@ 3618
convicted 3617
ah 3617
case-@@ 3613
foreclosure 3613
yst@@ 3611
expen@@ 3610
tele@@ 3610
Wildlife 3609
shar@@ 3607
president 3605
Resource 3605
IB@@ 3605
Pers@@ 3604
Resolution 3604
inaccurate 3604
consolidate 3604
images 3604
Propos@@ 3603
minimal 3603
argument 3602
uded 3602
harm@@ 3602
ER@@ 3602
Facility 3602
ther 3601
Mississippi 3601
excl@@ 3601
institu@@ 3599
Claims 3599
deposit 3598
collectively 3598
pleased 3598
maturity 3598
crimin@@ 3597
Hosp@@ 3597
whe@@ 3597
Servic@@ 3596
lower-@@ 3594
peak 3594
kes 3593
explosives 3593
stockpile 3593
sigh@@ 3593
historic 3592
List 3592
complet@@ 3591
foods 3591
consult 3590
-specific 3588
metric 3588
conve@@ 3587
settings 3587
statistically 3587
containers 3587
recycl@@ 3587
publis@@ 3586
drew 3586
qua@@ 3586
gar@@ 3586
exac@@ 3586
recession 3585
IL@@ 3583
bre@@ 3582
lights 3582
Effec@@ 3581
le-@@ 3579
plays 3576
trucks 3575
NEPA 3575
raises 3574
ades 3574
Equ@@ 3573
manufactured 3573
F-@@ 3573
simpli@@ 3572
plic@@ 3571
ance.@@ 3571
voluntarily 3567
completely 3566
Agricultural 3565
invested 3564
Factors 3564
percentages 3564
infl@@ 3563
France 3563
helpful 3563
imped@@ 3562
im 3562
Samoa 3562
embassy 3561
expir@@ 3560
controversial 3557
recognizes 3557
forfe@@ 3556
accred@@ 3556
exposed 3555
dependents 3555
teacher 3555
explanation 3553
inability 3553
designate 3553
servicers 3553
Vol@@ 3552
exclude 3551
Author@@ 3551
Requ@@ 3551
capac@@ 3551
rescis@@ 3551
theater 3551
prison 3550
assisting 3550
packages 3547
disclosed 3546
Enterprise 3546
pharmacy 3546
sem@@ 3545
Regulations 3544
composition 3544
EU@@ 3544
Defin@@ 3543
dual 3541
Estimates 3540
92 3538
tant 3538
M. 3537
Chicago 3537
pil@@ 3537
fairly 3535
cop@@ 3535
ity—@@ 3534
Like 3534
Export 3533
prove 3533
accidents 3533
Proc@@ 3530
Free 3530
disc@@ 3529
complying 3528
itative 3527
surve@@ 3527
warranted 3526
distinct 3526
petitions 3526
craft 3524
Judge 3524
concepts 3523
concludes 3522
measurable 3522
Securities 3521
tification 3521
F.@@ 3520
CFPB 3520
areas@@ 3519
Brazil 3519
coll@@ 3518
leads 3518
reproduced 3518
sistant 3517
century 3516
Benefit 3516
Diffe@@ 3515
I.@@ 3515
Overview 3515
occur@@ 3513
route 3512
designs 3511
cancer 3509
screen 3508
incremental 3506
assert 3505
flexible 3505
Waste 3505
dig@@ 3504
significance 3503
temporarily 3502
remedi@@ 3501
S.@@ 3499
preferences 3498
shipping 3497
Presid@@ 3496
instrument 3496
Cal@@ 3495
overcome 3494
tun@@ 3494
ert 3494
assure 3493
Qaeda 3493
ron 3493
usual 3492
icious 3492
share@@ 3492
pled 3491
project@@ 3490
CT 3490
credible 3490
green 3490
excessive 3489
borders 3488
investor 3487
assign 3486
politi@@ 3485
Islamic 3483
Commercial 3482
collateral 3482
simple 3481
contribu@@ 3481
apparent 3480
where@@ 3479
eric 3479
Initiatives 3478
failures 3478
stringent 3477
inappropriate 3477
semi@@ 3476
ols 3474
FY2001 3474
CL@@ 3474
filling 3473
astern 3473
graduate 3473
answ@@ 3473
affairs 3472
counsel 3472
buy@@ 3471
aver@@ 3470
Mac 3470
entitlement 3469
incorporating 3469
wast@@ 3469
uph@@ 3468
marketplace 3468
GE 3466
weighted 3466
Elec@@ 3465
vast 3465
closures 3465
Do 3463
municipal 3463
Exam@@ 3463
ath 3462
vent@@ 3462
Administr@@ 3462
shut@@ 3462
deta@@ 3461
furn@@ 3460
sev@@ 3459
aligned 3459
tobacco 3458
1.4 3458
strateg@@ 3457
Families 3457
bureaus 3456
autom@@ 3455
resear@@ 3454
facil@@ 3453
cip@@ 3452
fluctu@@ 3450
easier 3450
sho@@ 3449
indu@@ 3448
restore 3448
10-year 3446
radar 3446
depos@@ 3445
Treaty 3445
lever@@ 3445
Maintenance 3445
entirety 3445
uted 3444
develops 3444
ston 3443
remedy 3443
infra@@ 3443
cles 3442
occupational 3442
life-cycle 3442
reading 3440
fficient 3440
Jersey 3439
FIS@@ 3439
IPP 3439
s—the 3438
multi-@@ 3437
etting 3437
accreditation 3437
cing 3436
peace@@ 3435
detected 3434
ago 3434
2005.@@ 3433
infec@@ 3433
declaration 3431
Citi@@ 3429
Retirement 3429
sting 3427
tanks 3427
AT 3427
Controls 3427
invest@@ 3426
Four 3425
saw 3424
co 3424
Criminal 3424
ma 3424
configuration 3424
MD@@ 3423
es.S@@ 3423
NTIA 3423
GL@@ 3423
schol@@ 3418
enroll 3418
veness 3417
public-@@ 3416
Tran@@ 3415
.Res 3414
deductions 3414
ues 3414
7,@@ 3414
democratic 3413
George 3411
elimination 3411
Techn@@ 3411
eously 3410
exceeds 3410
act@@ 3409
vital 3408
borrowing 3407
FSIS 3407
purpos@@ 3406
urricanes 3406
FinCEN 3406
umb@@ 3405
variable 3405
ID 3404
suitable 3403
HU@@ 3403
rain 3402
acter@@ 3402
counterterrorism 3401
icians 3399
bir@@ 3398
Add@@ 3398
incre@@ 3398
ordinary 3397
fol@@ 3396
inherently 3396
paper@@ 3396
Building 3396
temper@@ 3396
dissemination 3395
replacing 3395
advances 3394
sessions 3394
typical 3394
comprised 3394
register 3393
Phys@@ 3393
gr@@ 3392
wards 3392
array 3392
Studies 3391
degrees 3388
RR@@ 3388
tier 3387
Problems 3386
custom@@ 3385
civilians 3384
Would 3384
Reclamation 3384
severity 3383
percent@@ 3383
Ass@@ 3382
401 3382
migration 3382
trade-@@ 3381
reluc@@ 3380
seiz@@ 3380
93 3380
news 3379
experiencing 3379
developmental 3379
icit 3377
Starts 3377
natur@@ 3376
alignment 3376
plann@@ 3375
roy@@ 3375
111-@@ 3374
oversees 3374
109 3373
J. 3372
captured 3371
ME 3371
Pass@@ 3370
G-@@ 3370
ethnic 3369
train@@ 3369
CPSC 3369
enced 3368
Tur@@ 3368
inherent 3368
accep@@ 3368
sustainability 3368
prevented 3367
Combat 3367
choos@@ 3366
ISA 3366
latest 3365
Streng@@ 3365
enth 3363
video 3363
Team 3362
Job 3361
binding 3360
Agre@@ 3357
Similar 3357
APHIS 3356
remainder 3354
ome 3351
Level 3351
Z 3350
fail@@ 3349
pipelines 3349
mitt@@ 3348
requirements.@@ 3348
period@@ 3347
viable 3347
delivering 3347
Syria 3346
taxable 3345
upgra@@ 3344
cover@@ 3343
Reduc@@ 3342
environ@@ 3342
responders 3342
accident 3341
first-@@ 3340
1970s 3339
BP 3339
accomplished 3337
EP@@ 3337
consequence 3335
dam@@ 3335
illicit 3334
33@@ 3334
ath@@ 3333
laun@@ 3332
Mea@@ 3332
ich 3331
slow@@ 3331
assistan@@ 3329
unpaid 3329
directing 3328
voice 3328
Willi@@ 3326
simultan@@ 3326
claimant 3326
gl@@ 3325
Farm 3324
UA@@ 3324
interdic@@ 3323
causing 3323
Institu@@ 3323
Burma 3323
INA 3323
rer 3322
rently 3321
Employees 3321
usefulness 3321
Measures 3321
FY2000 3321
allocating 3321
Ensure 3321
oned 3320
seri@@ 3320
U.S.@@ 3319
collective 3319
Test@@ 3319
wai@@ 3318
Vehic@@ 3318
monitored 3315
separ@@ 3315
inqui@@ 3314
extending 3312
inations 3309
terminate 3308
Organizations 3308
HI@@ 3308
3.5 3307
insurer 3307
vel 3306
integr@@ 3306
immigrants 3306
missible 3305
tied 3305
appropriat@@ 3305
Transit 3305
.This 3304
prison@@ 3304
pharmacies 3304
prov@@ 3301
meant 3300
anned 3299
Impl@@ 3298
retail@@ 3298
bridge 3298
Fu@@ 3298
Gran@@ 3298
survi@@ 3297
W. 3297
main@@ 3297
quantitative 3297
.R@@ 3296
exceeding 3296
elled 3295
constitutes 3293
swit@@ 3293
tow@@ 3293
Northern 3293
Adv@@ 3293
inking 3293
Cer@@ 3293
shore 3293
school@@ 3292
emphasize 3292
worksh@@ 3291
strongly 3290
15.@@ 3290
fficiency 3288
lose 3287
reprinted 3287
trigg@@ 3286
etro@@ 3286
faster 3286
bench@@ 3285
tracked 3285
14.@@ 3284
considerably 3284
Advanced 3284
C-1@@ 3284
ples 3283
Middle 3282
Electronic 3282
justify 3280
stitutes 3280
derivatives 3280
systemic 3280
uti@@ 3280
misu@@ 3279
Econom@@ 3279
Mem@@ 3279
picture 3279
IV-@@ 3277
intellectual 3277
disruption 3277
izes 3276
NextGen 3276
bran@@ 3275
achiev@@ 3274
similarly 3273
activiti@@ 3273
attend@@ 3273
Vice 3273
explore 3273
oxide 3273
impa@@ 3272
es.We 3272
dg@@ 3271
analytical 3271
mits 3271
mitted 3270
peri@@ 3268
Need 3268
probably 3267
Mid@@ 3266
Secure 3265
encountered 3264
LEA 3260
appreh@@ 3259
EO 3259
Taken 3259
customs 3257
prin@@ 3257
180 3257
soil 3257
bia 3256
tex@@ 3254
investigating 3254
criticized 3254
Beginning 3254
Implementing 3254
four@@ 3254
assumption 3253
offender 3252
gathering 3252
failing 3252
wet@@ 3252
ethanol 3252
confusion 3251
congestion 3250
thers 3250
Ger@@ 3249
secured 3249
burden@@ 3249
remo@@ 3248
Tru@@ 3247
young 3247
y.The 3247
revision 3246
drug@@ 3246
auditor 3246
Early 3243
usti@@ 3241
pression 3240
ranking 3239
recommends 3238
pho@@ 3237
mailed 3237
Zone 3237
Officers 3236
houses 3234
ism@@ 3233
Engineering 3233
trying 3233
end-@@ 3233
Ms 3232
dum@@ 3231
disadvantaged 3230
Bu@@ 3229
studied 3229
livestock 3228
Policies 3228
ity-based 3228
2007.@@ 3228
Det@@ 3228
auc@@ 3227
ptions 3226
ext 3226
proportion@@ 3226
lives 3225
opened 3224
Struc@@ 3224
LS 3224
runs 3223
cars 3223
client 3221
Been 3220
traditionally 3219
Statistics 3219
CM 3219
refugees 3219
posted 3217
qualifications 3216
Whether 3216
zero 3216
Net 3216
Island 3215
mess@@ 3214
Time 3213
intra@@ 3213
fit@@ 3212
Individual 3212
event@@ 3212
audited 3212
esti@@ 3210
expres@@ 3209
dow@@ 3209
concer@@ 3208
Aer@@ 3208
square 3207
acknowledge 3206
sia 3206
resp@@ 3206
automo@@ 3204
resili@@ 3204
privatization 3204
violated 3203
trou@@ 3203
wells 3203
execute 3202
Materi@@ 3201
IH@@ 3201
ancies 3200
ern@@ 3199
gone 3198
Vs 3198
attend 3197
Abuse 3197
granting 3197
per-@@ 3197
Observations 3196
private-sector 3196
valued 3195
sorti@@ 3195
Help 3194
Manual 3193
manag@@ 3193
transparent 3192
transferring 3191
uncertainties 3191
Sea 3191
adopting 3189
dering 3189
exha@@ 3189
wi@@ 3189
retaining 3189
sor 3189
jury 3188
ferences 3188
tracks 3188
pping 3187
ensively 3185
truck 3185
4,000 3185
concl@@ 3184
yiel@@ 3183
D.@@ 3182
Card 3182
Integr@@ 3182
yp@@ 3181
art 3181
CF 3181
killed 3180
consuming 3180
realized 3180
itability 3179
identical 3178
station@@ 3178
STEM 3178
entirely 3177
David 3176
Model 3176
ension 3176
higher-@@ 3176
108-@@ 3175
pir@@ 3174
zer@@ 3174
H.@@ 3173
Equi@@ 3173
ta 3171
Hu@@ 3171
L. 3170
weekly 3170
declines 3170
requirement@@ 3169
Fraud 3169
taining 3168
Advoc@@ 3168
Japanese 3168
Used 3167
deadlines 3166
STA@@ 3164
percent.@@ 3164
alert 3163
earth@@ 3163
etic 3163
path 3163
kept 3162
fts 3161
pur@@ 3161
vision@@ 3161
normally 3160
tension 3160
Inte@@ 3160
F/@@ 3160
interview@@ 3159
Inspection 3158
arti@@ 3156
anced 3156
Part@@ 3156
benchmark 3155
NH@@ 3155
justified 3154
Amendments 3154
adhe@@ 3154
consult@@ 3154
looking 3154
amoun@@ 3153
TPP 3153
allies 3152
DD@@ 3152
AMP 3152
ate@@ 3151
opening 3151
stud@@ 3151
a—@@ 3151
duplicative 3150
Hispan@@ 3149
Bay 3149
Hawaii 3148
large-scale 3148
financi@@ 3147
Library 3147
SNAP 3146
-2 3146
ynam@@ 3146
wardship 3146
resum@@ 3145
exclusively 3143
ammunition 3141
discoura@@ 3141
operation@@ 3141
Made 3141
Industri@@ 3140
business@@ 3139
revising 3139
she@@ 3138
protocols 3138
micro@@ 3138
brok@@ 3137
decreases 3137
Areas 3137
James 3136
scrutiny 3136
radiological 3136
deposits 3136
ope 3136
Proposed 3136
thou@@ 3134
Cooperation 3134
expan@@ 3133
Regul@@ 3133
manufacture 3132
OM 3131
medium 3130
SD@@ 3130
1974 3129
affiliated 3129
docu@@ 3129
shortage 3129
meth@@ 3129
Health@@ 3128
tail 3127
1978 3127
casu@@ 3127
100@@ 3126
GAO-1@@ 3126
wil@@ 3125
drive 3125
10-@@ 3125
let@@ 3125
ensive 3124
dairy 3124
voucher 3124
pattern 3122
cut@@ 3122
sheet 3122
Sm@@ 3121
Saudi 3120
insu@@ 3119
donor 3119
denial 3117
tribe 3117
unt@@ 3116
damaged 3115
Statement 3114
energ@@ 3114
1.6 3113
incur 3113
refund 3113
App@@ 3112
group@@ 3111
contra@@ 3110
parti@@ 3110
standardi@@ 3110
batt@@ 3109
compromise 3107
C.@@ 3107
Compar@@ 3106
publications 3106
skill 3106
pack@@ 3106
travelers 3106
fun@@ 3105
ame 3105
jurisdic@@ 3104
1984 3104
sionally 3103
Develop 3103
labeling 3103
dil@@ 3102
circuit 3102
tering 3102
ici@@ 3102
uch 3101
forum 3101
Conduc@@ 3100
pment 3100
Improvements 3100
paragraph 3099
aqu@@ 3099
exclusive 3096
Domestic 3096
prototyp@@ 3096
shipment 3096
Angeles 3096
ff 3095
mer 3093
facilitating 3093
reci@@ 3092
conflic@@ 3089
incorpor@@ 3088
ures@@ 3087
Chemical 3087
D. 3086
compan@@ 3086
curricul@@ 3086
OTC 3085
protec@@ 3084
PR 3084
101 3083
licensees 3083
unlike 3082
engaging 3082
now@@ 3082
Improved 3082
inconsistencies 3080
violate 3079
Independent 3078
Engineers 3078
Steps 3078
Col@@ 3077
robust 3077
departmental 3077
enemy 3076
Payment 3076
elling 3075
mart 3075
Er@@ 3074
Climate 3072
Moun@@ 3069
recurring 3069
Missile 3068
bat@@ 3067
Sa@@ 3065
circum@@ 3064
interventions 3064
111@@ 3063
Docu@@ 3063
groundwater 3063
sized 3063
understood 3062
rup@@ 3062
kin@@ 3062
High-@@ 3062
* 3061
Robert 3061
FOIA 3061
lity 3060
counterfe@@ 3059
introduction 3059
ferees 3058
beli@@ 3058
Options 3058
paren@@ 3057
deny 3057
attended 3056
ballot 3056
prev@@ 3055
defaul@@ 3055
Risks 3055
isl@@ 3054
judiciary 3054
Developing 3054
underway 3053
inee 3053
sav@@ 3051
ured 3051
Investigation 3050
cent@@ 3049
empha@@ 3049
1.7 3049
government-wide 3048
LP 3048
conn@@ 3047
teen 3047
concentrated 3047
delinquent 3046
Lead@@ 3045
volumes 3045
statut@@ 3044
ided 3044
parameters 3044
ris 3043
ach 3043
spl@@ 3042
parlia@@ 3042
Years 3042
2004.@@ 3042
corrected 3042
16.@@ 3040
aster@@ 3040
atically 3039
stic 3039
evacu@@ 3039
preventive 3039
Branch 3037
tries 3037
pollutants 3037
withdrawal 3035
Peace 3035
Inv@@ 3035
dependence 3034
authorizations 3032
nel 3032
v/@@ 3031
Leban@@ 3031
PPACA 3031
freedom 3029
concentration 3028
Rest@@ 3027
pain 3027
.Although 3027
crash 3027
scheduling 3027
residence 3026
Legal 3026
recording 3025
Pil@@ 3025
urgent 3024
assignments 3024
mainly 3024
extr@@ 3023
DOI 3023
xed 3022
deman@@ 3022
meat 3021
sian 3020
sanc@@ 3019
Savings 3019
ads 3019
attributes 3019
underwriting 3019
creening 3018
ague 3017
discounted 3016
agenda 3015
pledg@@ 3013
arial 3012
anning 3012
El@@ 3011
e/@@ 3011
ne 3011
ARRA 3011
Viol@@ 3008
publish 3008
disagree 3008
pati@@ 3007
performanc@@ 3007
Def@@ 3005
fur@@ 3005
married 3005
GAO/T-@@ 3005
IT@@ 3004
disciplinary 3003
attract 3003
anding 3002
dle 3002
virus 3002
behavioral 3000
leg@@ 2999
relying 2999
shap@@ 2998
tariffs 2998
positioned 2998
assum@@ 2997
unanim@@ 2995
colleges 2995
esel 2995
marri@@ 2994
admission 2993
2006.@@ 2990
Spec@@ 2990
investing 2990
shifted 2990
NSIAD-9@@ 2990
:@@ 2989
arly 2988
stipul@@ 2988
gender 2988
ade@@ 2988
functionality 2988
Financing 2986
Documents 2985
Taxpay@@ 2985
suff@@ 2984
caps 2984
strong@@ 2983
fem@@ 2983
leased 2983
prosecut@@ 2981
ate-@@ 2981
sugar 2981
Compensation 2980
regulator 2980
ACS 2979
read 2978
Hom@@ 2978
nu@@ 2978
mechan@@ 2978
foreign@@ 2976
ogen@@ 2976
mobil@@ 2976
Please 2975
120@@ 2974
Tw@@ 2974
nov@@ 2974
sto@@ 2973
critics 2972
Capitol 2972
FC 2972
fax 2972
Disability 2971
prevail@@ 2971
Don@@ 2970
specifications 2970
blood 2970
carri@@ 2969
wholesale 2969
shifting 2969
computing 2969
day-to-day 2969
Election 2967
profile 2966
Bos@@ 2966
7.5 2965
productive 2965
Ukraine 2965
forec@@ 2965
uting 2964
sti@@ 2963
UA 2963
possession 2962
Ret@@ 2962
random@@ 2962
hop@@ 2961
dia 2961
Latin 2961
Aud@@ 2961
formulas 2960
matched 2960
eve 2959
link@@ 2959
cle 2958
102 2957
tank 2957
expressly 2956
Turkey 2956
biometric 2956
establishments 2955
car 2954
eptions 2954
imprisonment 2953
era 2953
class@@ 2953
drop 2952
virtually 2951
stitution 2951
CE 2951
Superfund 2951
rounds 2950
message 2950
Goals 2950
sustainment 2950
misconduct 2948
substitute 2948
think 2947
proven 2947
OIRA 2947
volunte@@ 2946
Nevada 2946
tian 2945
smo@@ 2945
restriction 2945
TARP 2945
auction 2944
deficiency 2944
carryover 2943
proprietary 2942
nav@@ 2941
extremely 2940
LNG 2940
Ranking 2940
Eligibility 2939
arguably 2938
US-VISIT 2938
istleb@@ 2936
practitioners 2936
Speci@@ 2936
patents 2936
power@@ 2934
Opportunities 2934
Innovation 2934
bian 2934
liquidity 2933
expire 2933
Dem@@ 2933
6,000 2933
.CRS 2932
Loans 2932
cents 2931
preserve 2929
six@@ 2929
turned 2929
balanced 2929
evi@@ 2928
fishing 2928
agency-@@ 2928
propose 2928
Refu@@ 2927
discussing 2927
trials 2926
servicing 2925
sub-@@ 2924
passport 2924
augh@@ 2923
FI 2923
plaintiffs 2922
itig@@ 2922
Exper@@ 2922
militar@@ 2921
Acting 2921
Cover@@ 2920
encoun@@ 2920
mobility 2920
willingness 2919
enhancements 2918
ford 2917
confirmation 2916
Ti@@ 2916
consist@@ 2915
Caribbean 2915
element@@ 2915
addi@@ 2915
Fourth 2914
subjects 2914
super@@ 2914
branches 2913
boundaries 2912
day@@ 2912
ched 2911
Ri@@ 2911
Vari@@ 2911
arrest 2910
ESEA 2910
Bra@@ 2909
departure 2908
erals 2908
ested 2907
ERISA 2907
therapy 2907
PH@@ 2907
enabling 2906
devoted 2906
agg@@ 2906
ys@@ 2905
enabled 2904
System@@ 2904
Thom@@ 2903
You 2903
Non-@@ 2903
ock 2903
BEA 2903
Om@@ 2902
constrained 2902
org@@ 2901
antibio@@ 2901
ossi@@ 2900
2003.@@ 2899
generalizable 2899
falls 2898
unlawful 2898
Web@@ 2898
tour@@ 2898
tened 2897
custodial 2896
22@@ 2896
particip@@ 2896
Lev@@ 2896
Can@@ 2896
Pakistan@@ 2895
AR 2895
37@@ 2894
modern 2893
gained 2893
consultants 2893
rol 2893
rever@@ 2892
validated 2891
ales 2890
Lack 2890
developers 2890
PTO 2890
double 2889
buyers 2888
Cho@@ 2887
fired 2886
Palestini@@ 2886
1982 2884
abin@@ 2882
ST 2882
management@@ 2882
enum@@ 2881
certificate 2881
commenting 2881
copy@@ 2881
driving 2880
Contracting 2879
revol@@ 2877
presid@@ 2875
died 2875
Wel@@ 2875
differently 2873
variations 2873
Mail 2873
 2873
nominations 2871
Concl@@ 2869
Foc@@ 2868
sector@@ 2868
Sharing 2868
Challeng@@ 2867
Atlantic 2867
s.As 2867
lift 2866
Panel 2866
108@@ 2865
point@@ 2865
safeguard 2864
Pay 2864
BSA 2864
enjo@@ 2863
istr@@ 2862
decreas@@ 2862
ota 2862
Gra@@ 2861
NAFTA 2861
AD 2861
ky 2860
compares 2860
Ra@@ 2858
Egypt 2858
consular 2857
grid 2857
delegated 2856
Invest@@ 2856
revealed 2856
enter@@ 2855
bill@@ 2855
discovered 2855
Deepwater 2853
HIV 2853
signals 2852
Mark@@ 2850
Did 2849
rises 2849
sophistic@@ 2846
absor@@ 2846
Bene@@ 2846
checked 2844
well@@ 2842
vious 2842
2.1 2842
milest@@ 2842
seems 2841
ation.The 2841
Chi@@ 2841
Tier 2841
solicitation 2840
ang 2840
prox@@ 2838
sin 2837
Sch@@ 2837
Stre@@ 2837
essed 2836
Approach 2836
Chec@@ 2836
RCE@@ 2836
familiar 2835
alogue 2835
Sust@@ 2835
-22 2834
solar 2833
uty 2832
Compl@@ 2832
influenced 2830
remedial 2830
categorized 2829
53@@ 2828
flexi@@ 2828
permanently 2826
preh@@ 2825
conferences 2825
.While 2825
500,000 2825
ballots 2825
ower 2824
moderate 2824
closer 2824
mobilization 2824
northern 2823
Head@@ 2823
terror@@ 2822
getting 2822
producer 2822
rigorous 2820
Demon@@ 2819
flag 2818
talks 2818
essing 2817
predict 2817
Spending 2817
strength@@ 2816
HR 2816
2.2 2815
ody 2814
................@@ 2814
inmates 2813
dul@@ 2812
ever@@ 2810
Opportunity 2810
door 2809
FFS 2808
conclude 2807
sor@@ 2807
Term 2807
iling 2807
precise 2806
gres@@ 2805
erb@@ 2805
desire 2804
fear 2804
restim@@ 2804
Reli@@ 2804
spill 2804
Eng@@ 2803
aspect 2803
territorial 2803
OES@@ 2803
arily 2802
exped@@ 2802
ser@@ 2801
8,@@ 2801
-12 2801
Israel@@ 2801
PO@@ 2800
ano@@ 2800
win@@ 2799
113-@@ 2799
countr@@ 2798
spea@@ 2798
visitors 2798
Tennessee 2796
func@@ 2796
foot@@ 2796
inter 2796
finger@@ 2796
Weapons 2796
announcement 2795
segments 2794
criterion 2794
phased 2794
resistance 2793
outbreak 2793
bile 2793
ense 2792
mitigating 2791
phys@@ 2791
retiree 2791
Increase 2791
wo@@ 2790
peacekeeping 2789
Appl@@ 2788
pus 2788
conveni@@ 2786
CB 2786
prohibiting 2785
cra@@ 2785
performance-based 2784
reservists 2784
edy 2783
é@@ 2783
Acc@@ 2783
shortfall 2781
workloads 2781
Post@@ 2780
institution@@ 2779
hment 2779
versely 2778
forecast 2778
bringing 2778
PAA 2778
wealth 2777
assuming 2777
Cyber@@ 2776
err@@ 2776
weak 2774
converted 2774
eges 2772
mean@@ 2770
propor@@ 2770
isms 2770
eshi@@ 2770
equipped 2770
spons@@ 2770
recommen@@ 2769
Case 2769
1.8 2769
illnesses 2769
earn 2768
ellation 2768
Port 2768
depend@@ 2767
-21 2767
verifying 2767
ournal 2766
feed 2766
IPC 2766
ing-@@ 2765
FNS 2765
correspondence 2764
IGs 2764
suspec@@ 2763
deter 2762
107@@ 2762
ean 2762
UC 2762
de-@@ 2761
VE@@ 2760
Treat@@ 2759
Lakes 2759
l-@@ 2759
handled 2758
ald 2758
Ci@@ 2757
utions 2757
margin 2757
repeat@@ 2757
Ns 2757
baggage 2757
Maritime 2756
ambigu@@ 2755
ffici@@ 2755
earance 2754
Likewise 2754
defe@@ 2753
-time 2753
NARA 2753
-on 2752
clinics 2752
Consistent 2752
sively 2751
Indonesia 2751
postsecondary 2750
Fannie 2750
separated 2749
jection 2749
ached 2749
counting 2749
san@@ 2748
seas@@ 2746
PD 2746
che@@ 2745
onau@@ 2745
… 2745
Workers 2744
attainment 2743
Assembly 2742
-day 2741
fighters 2741
fav@@ 2740
debtor 2740
subsidiaries 2740
SSN 2740
.Since 2739
Iran@@ 2738
Alli@@ 2737
ests 2737
2008.@@ 2737
ords 2736
cost-sharing 2736
EITC 2736
obstacles 2735
Work@@ 2735
marginal 2735
broker-@@ 2735
spare 2735
jeopar@@ 2734
pressures 2734
southern 2734
VIS@@ 2734
intendent 2734
cc@@ 2732
Bro@@ 2731
s—such 2731
trition 2730
aining 2730
usions 2730
Nutrition 2730
accommod@@ 2730
hardship 2730
tery 2730
NDAA 2730
2009.@@ 2730
adop@@ 2729
or-@@ 2729
Schools 2729
forecasts 2728
add@@ 2727
ellate 2726
dges 2726
hos@@ 2725
Continuing 2725
cription 2725
buying 2725
environments 2725
DN@@ 2724
juvenile 2724
pharmaceutical 2724
neighb@@ 2723
aster 2723
wing 2722
aper 2721
squ@@ 2721
partisan 2721
suggestions 2721
thri@@ 2721
Will 2720
ressing 2720
ich@@ 2719
math 2719
budget@@ 2719
Gr@@ 2719
veter@@ 2719
Meth@@ 2719
Adjust@@ 2719
dy 2719
onally 2718
zen 2717
recovered 2715
deployments 2715
Site 2715
averaged 2715
LCS 2715
ce.@@ 2714
Agen@@ 2714
billed 2714
fro@@ 2714
sequently 2713
Supply 2713
Expan@@ 2712
questionable 2712
dangerous 2711
dating 2711
wind@@ 2711
regulating 2710
merger 2710
chronic 2710
Haz@@ 2709
tended 2708
lie@@ 2708
PM 2708
segment 2707
success@@ 2707
emergencies 2707
erts 2706
insight 2706
seats 2705
endangered 2705
happ@@ 2705
university 2704
Succ@@ 2703
eing 2702
DB 2702
Guidelines 2701
20.@@ 2701
Exp@@ 2698
-1B 2697
volati@@ 2696
Wil@@ 2695
ashes 2695
sensitivity 2694
Prof@@ 2694
irman 2693
NSC 2692
Various 2692
nongovernmental 2692
ough@@ 2691
Kenn@@ 2691
PL@@ 2691
Distribu@@ 2691
Leadership 2691
kinds 2690
4.5 2689
machines 2689
Popul@@ 2687
TP 2687
Experi@@ 2687
OJ@@ 2687
airspace 2686
ka 2685
Integration 2685
ed.In 2684
mines 2684
competencies 2684
referen@@ 2683
preceding 2682
secu@@ 2682
nings 2682
themati@@ 2682
bal 2681
-3 2679
reflecting 2679
aim@@ 2679
PHAs 2678
Significant 2677
withholding 2676
rant 2676
abet@@ 2675
sci@@ 2675
—in 2674
FE 2673
El 2672
stamp 2672
CDBG 2672
Spea@@ 2671
waive 2671
ateg@@ 2669
Gas 2668
Arch@@ 2667
appor@@ 2666
C. 2665
heigh@@ 2665
pot@@ 2665
consisting 2665
Phil@@ 2665
Role 2664
jected 2664
years.@@ 2664
electrical 2664
extrac@@ 2664
bids 2663
workplace 2663
detec@@ 2663
ruled 2662
five-year 2662
ais@@ 2661
scheme 2661
signal 2661
cell 2661
depots 2661
relocation 2660
Dakota 2659
services.@@ 2659
depreciation 2659
Budg@@ 2658
differing 2658
ceiling 2658
Minnesota 2657
tasked 2657
Minority 2656
theory 2656
eau@@ 2655
enric@@ 2655
2002.@@ 2655
introduce 2654
constra@@ 2653
nutri@@ 2653
stration 2652
contractor@@ 2652
Mari@@ 2651
Open 2651
Fle@@ 2651
biomass 2651
reviewers 2651
EV@@ 2651
FAC 2650
emporary 2649
stances 2649
activities.@@ 2649
Unit 2649
deficits 2649
indication 2648
Available 2648
2.3 2647
detecting 2647
ternarcotics 2647
Bei@@ 2647
supportive 2646
outlines 2645
izations 2645
rang@@ 2644
recreational 2644
consolidating 2643
aming 2642
LR@@ 2642
Disease 2641
confidentiality 2640
outs 2639
disruptions 2639
Reduce 2639
21@@ 2638
Today 2637
fixed-@@ 2637
eal@@ 2636
Appropri@@ 2636
Nation@@ 2635
NMFS 2634
GG@@ 2634
lifetime 2633
alcohol 2631
Att@@ 2630
ultimate 2630
al.@@ 2630
cool@@ 2630
sing@@ 2630
diff@@ 2629
afford@@ 2628
Cur@@ 2626
bled 2626
channels 2625
115 2624
Directive 2624
offsets 2624
conviction 2623
consulting 2623
Tel@@ 2623
warfare 2623
ld@@ 2622
assesses 2622
clarified 2620
nover 2620
ESA 2620
OB@@ 2620
Boeing 2619
compatible 2618
_@@ 2618
hab@@ 2618
implement@@ 2618
Ke@@ 2617
econd 2617
reservation 2617
Pati@@ 2617
compensate 2616
stand 2615
dre@@ 2614
UN@@ 2614
outcom@@ 2614
Condi@@ 2612
sensors 2612
avail@@ 2610
RC@@ 2610
recruit 2610
oci@@ 2609
functioning 2609
satisfac@@ 2609
IDEA 2609
ettlement 2609
hypo@@ 2609
chlor@@ 2609
commander 2608
servicemember 2608
e-related 2607
Collection 2607
SP 2607
f-@@ 2606
ocean 2606
hospit@@ 2605
NAIC 2605
aul@@ 2604
enlisted 2604
differed 2604
ateral 2604
01 2603
Effects 2603
forests 2603
Eth@@ 2602
sustaining 2602
barri@@ 2601
arded 2600
Sha@@ 2600
thern 2599
electoral 2599
till 2599
encourages 2598
ok 2598
case@@ 2598
Stake@@ 2598
fiduci@@ 2597
ctic 2597
refuge@@ 2597
Us@@ 2597
desirable 2596
Fish 2596
18.@@ 2596
mit@@ 2595
fran@@ 2595
NAS@@ 2595
Venezuela 2595
NTSB 2595
returning 2594
angi@@ 2594
fine 2593
appe@@ 2593
youn@@ 2593
Smithson@@ 2593
recreation 2592
Achi@@ 2592
panels 2591
2001.@@ 2591
Operating 2590
diplomacy 2589
comings 2588
repeal 2588
lobbying 2588
match@@ 2588
12-@@ 2587
assurances 2586
privately 2585
epi@@ 2585
accelerated 2584
RHS 2584
multipl@@ 2583
Rang@@ 2583
demonstrating 2582
ONDCP 2582
rare 2581
article 2581
liquid 2581
vention 2580
consist 2580
grow@@ 2579
sist 2579
eness 2579
streamline 2579
Surveillance 2578
codi@@ 2577
underground 2577
Capabilities 2576
time@@ 2576
Processing 2576
volunteers 2576
modes 2576
backed 2576
inquiries 2575
Specific 2575
remedies 2574
tin@@ 2573
Transition 2573
budgeted 2573
pertinent 2572
conserv@@ 2571
Production 2571
s—including 2571
Life 2570
BLS 2570
trigger 2570
Debt 2570
=@@ 2570
Connec@@ 2569
countermeasures 2569
bargaining 2567
agencywide 2567
evid@@ 2566
injured 2566
apter 2566
supporters 2565
ACE 2565
finds 2564
confid@@ 2564
navigation 2564
arrang@@ 2564
Women 2563
tives 2561
igh 2561
alism 2561
SBIR 2561
admitted 2560
at-@@ 2559
iture 2558
Musli@@ 2558
SCHIP 2558
citizenship 2557
achment 2557
anta 2557
evaluates 2556
ts@@ 2556
-up 2556
displaced 2556
royalty 2556
eria 2556
plaintiff 2555
ryp@@ 2555
architec@@ 2554
formerly 2553
signs 2552
argo 2551
versy 2550
certificates 2549
alia 2548
tem@@ 2547
Terror@@ 2546
assess@@ 2546
AIDS 2543
tral 2541
FB@@ 2541
hou@@ 2539
structu@@ 2539
campa@@ 2537
portfoli@@ 2531
ignment 2530
licen@@ 2529
chers 2528
princip@@ 2527
TRI@@ 2526
associ@@ 2524
Colom@@ 2524
Concer@@ 2523
ffered 2523
eed 2520
verage 2517
emis@@ 2516
stitu@@ 2515
compromis@@ 2515
examin@@ 2514
model@@ 2513
adverti@@ 2513
suffici@@ 2512
collec@@ 2511
curren@@ 2510
T-@@ 2510
credi@@ 2509
spo@@ 2505
valid@@ 2505
ject 2504
ace@@ 2503
renti@@ 2502
scre@@ 2501
refer@@ 2500
partner@@ 2496
anal@@ 2492
vity 2492
Corpor@@ 2492
detail@@ 2488
Int@@ 2487
traffic@@ 2484
ears 2480
q 2478
complic@@ 2476
Ju@@ 2476
lined 2475
rought 2472
Il@@ 2471
enni@@ 2471
evalu@@ 2467
ign 2459
pli@@ 2453
enrol@@ 2453
fle@@ 2450
ecting 2449
ople 2447
Islam@@ 2447
House@@ 2443
contr@@ 2438
iliation 2436
contro@@ 2433
ray 2431
substanti@@ 2430
expo@@ 2430
intere@@ 2428
aud@@ 2422
ledg@@ 2422
ural 2421
anu@@ 2414
-of-@@ 2411
finan@@ 2410
pow@@ 2410
Recommend@@ 2409
schem@@ 2404
defend@@ 2401
teach@@ 2400
repa@@ 2398
imil@@ 2397
rea@@ 2393
ortg@@ 2390
____@@ 2387
une 2387
milit@@ 2386
coh@@ 2386
dispos@@ 2384
guar@@ 2383
Offic@@ 2382
voted 2381
matic 2381
ror 2379
determin@@ 2378
estion 2374
neigh@@ 2374
aim 2373
Lo@@ 2372
Dat@@ 2372
ologies 2368
electron@@ 2367
eti@@ 2366
hun@@ 2364
ITC 2363
datory 2353
cher 2353
ef@@ 2352
Inspec@@ 2352
ploy@@ 2348
excep@@ 2344
west 2343
ury 2339
spou@@ 2336
ification 2335
asters 2332
scri@@ 2330
liter@@ 2328
milli@@ 2327
decl@@ 2326
lic@@ 2325
seg@@ 2325
situ@@ 2323
suggest@@ 2320
operative 2319
itary 2315
veral 2312
questionn@@ 2311
consequ@@ 2310
shif@@ 2310
Judici@@ 2302
moder@@ 2302
plom@@ 2300
gri@@ 2298
introduc@@ 2297
ini@@ 2297
Str@@ 2296
chron@@ 2293
IV@@ 2292
grou@@ 2285
recogn@@ 2283
Depart@@ 2282
Cen@@ 2282
prise 2281
.If 2279
Buil@@ 2273
rap@@ 2273
flow@@ 2271
pend@@ 2268
ource 2267
exi@@ 2266
e. 2266
comple@@ 2265
muni@@ 2265
estions 2261
Dom@@ 2261
Strateg@@ 2260
+ 2257
eph@@ 2257
abs@@ 2257
pendit@@ 2256
employe@@ 2256
labor@@ 2254
XX@@ 2251
Net@@ 2251
navi@@ 2250
imple@@ 2245
za 2243
acies 2240
self 2239
raft 2234
sig@@ 2234
Educ@@ 2234
Pu@@ 2234
acqui@@ 2232
Eligi@@ 2232
exclu@@ 2229
reign 2228
confi@@ 2227
eared 2227
acces@@ 2226
accor@@ 2225
bet@@ 2218
stry 2218
prohibi@@ 2216
stance 2216
call@@ 2213
tt@@ 2206
versi@@ 2206
aren@@ 2205
ern 2204
Read@@ 2202
memb@@ 2202
attribu@@ 2199
Labor@@ 2197
ots 2196
therap@@ 2192
vili@@ 2191
ney 2186
reve@@ 2184
aring 2179
j 2177
tainty 2175
ault 2171
Rob@@ 2166
corpor@@ 2166
Commission@@ 2163
enn@@ 2161
enhanc@@ 2161
demic 2161
pe 2160
liqui@@ 2157
deploy@@ 2157
tak@@ 2155
Acqui@@ 2147
FAS 2147
aching 2143
Rus@@ 2142
bene@@ 2141
Sam@@ 2141
NG 2140
lawful 2139
Control@@ 2139
gn@@ 2138
invol@@ 2137
surance 2137
stitute 2128
dri@@ 2128
rad@@ 2125
marg@@ 2125
So@@ 2123
tradi@@ 2122
sistent 2122
ric 2120
reduc@@ 2115
mut@@ 2112
disp@@ 2105
bes 2102
mic 2100
borrow@@ 2099
provid@@ 2099
proper@@ 2097
H.R@@ 2097
egu@@ 2097
venti@@ 2095
ush 2094
Custom@@ 2094
reas@@ 2086
rehabil@@ 2083
eak 2079
tract 2079
We@@ 2076
hour@@ 2075
compon@@ 2073
Atl@@ 2072
akes 2072
erc@@ 2071
commit@@ 2068
increas@@ 2065
Ann@@ 2064
rement 2061
enting 2058
od 2056
odi@@ 2053
Advis@@ 2052
www.@@ 2050
nia 2050
mitig@@ 2050
oph@@ 2046
accord@@ 2046
streng@@ 2043
will@@ 2037
erally 2036
Hel@@ 2036
pendi@@ 2036
challeng@@ 2034
see@@ 2034
bly 2033
langu@@ 2028
NS 2028
rele@@ 2026
maxim@@ 2024
rences 2022
tural 2022
embly 2020
brary 2016
Imp@@ 2015
stock@@ 2013
Num@@ 2012
delinqu@@ 2012
Eff@@ 2009
equival@@ 2008
mes 2002
Hist@@ 2002
respec@@ 1997
fair@@ 1996
Fre@@ 1996
Sta@@ 1995
ained 1994
ith@@ 1994
istan 1991
lood 1989
ainst 1981
orts 1980
q@@ 1980
represent@@ 1975
vement 1975
question@@ 1970
ington 1966
Dru@@ 1966
tacti@@ 1963
break 1963
diplom@@ 1962
Organiz@@ 1962
interoper@@ 1955
innov@@ 1952
atories 1951
cro@@ 1951
month@@ 1950
cle@@ 1950
dge 1946
eff@@ 1943
ration@@ 1941
ior 1938
proced@@ 1936
Inst@@ 1936
sors 1935
é 1933
testim@@ 1932
effec@@ 1932
weap@@ 1931
NN@@ 1929
satis@@ 1929
urricane 1929
cotics 1929
utes 1928
riteri@@ 1928
privati@@ 1928
regim@@ 1923
repor@@ 1921
inte@@ 1919
religi@@ 1918
memorandu@@ 1917
adver@@ 1911
sim@@ 1910
interven@@ 1907
retur@@ 1903
alloc@@ 1903
warran@@ 1901
effecti@@ 1898
wer 1896
pharm@@ 1892
tionality 1889
lit@@ 1888
Rol@@ 1887
pared 1887
servation 1886
neys 1886
soldi@@ 1886
prises 1885
sam@@ 1884
sampl@@ 1884
ources 1879
relev@@ 1878
cong@@ 1876
deri@@ 1874
habil@@ 1874
ground@@ 1874
tees 1870
identi@@ 1869
Americ@@ 1868
novation 1868
Hou@@ 1867
vements 1867
Grou@@ 1865
behavi@@ 1865
overy 1864
arency 1864
Oper@@ 1862
Fra@@ 1858
fficul@@ 1858
eligi@@ 1857
ximately 1857
municip@@ 1856
propri@@ 1853
sular 1853
gence 1851
jun@@ 1851
counsel@@ 1851
exam@@ 1847
Consolid@@ 1847
Attor@@ 1846
alists 1845
Tax@@ 1843
entially 1840
ju@@ 1839
overse@@ 1839
safegu@@ 1838
appl@@ 1837
regist@@ 1833
gas@@ 1828
ucc@@ 1826
cy 1818
Consum@@ 1814
Imple@@ 1812
ecu@@ 1809
cum@@ 1808
ead 1808
mak@@ 1807
NF 1806
week@@ 1798
whol@@ 1795
convic@@ 1794
Acade@@ 1793
Deb@@ 1787
ict 1786
orandu@@ 1786
lead@@ 1785
enrolle@@ 1784
limin@@ 1782
arb@@ 1782
arian 1776
declar@@ 1776
comman@@ 1775
alid 1771
famili@@ 1765
Nav@@ 1764
stu@@ 1764
quar@@ 1763
ward@@ 1760
require@@ 1756
smugg@@ 1754
Polic@@ 1754
elecommunications 1752
Chin@@ 1750
istry 1750
istic@@ 1750
Introduc@@ 1748
reven@@ 1748
ffic 1744
ific@@ 1742
calcul@@ 1739
particul@@ 1737
larg@@ 1736
yond 1735
Iraq@@ 1733
toral 1732
ett@@ 1732
Pay@@ 1729
osp@@ 1728
derly 1726
Is@@ 1726
fam@@ 1722
entit@@ 1721
lement 1716
Rul@@ 1716
instru@@ 1713
Proced@@ 1712
inary 1712
barg@@ 1711
funda@@ 1709
gh 1709
Pal@@ 1708
inning 1708
lic 1708
tric 1703
ayed 1701
# 1697
GH@@ 1696
distric@@ 1694
pic@@ 1693
Parti@@ 1692
ind 1691
structuring 1689
mitting 1686
ewide 1681
á@@ 1680
scen@@ 1678
Thir@@ 1677
spective 1672
Practi@@ 1671
RAC 1669
angu@@ 1667
BG 1667
Star@@ 1666
rough@@ 1664
chec@@ 1662
roll 1657
…@@ 1657
servers 1655
alig@@ 1653
erous 1649
eland 1644
U.@@ 1642
IR 1641
echan@@ 1641
fically 1637
ferred 1634
iness 1631
invent@@ 1629
orable 1626
complain@@ 1622
urity 1618
Perform@@ 1617
loads 1616
recru@@ 1615
house@@ 1612
trics 1610
uration 1609
acked 1603
dents 1602
lock 1601
assy 1599
lis@@ 1598
possi@@ 1598
Dev@@ 1594
Sept@@ 1594
wea@@ 1590
Leg@@ 1588
adul@@ 1588
eless 1586
frequ@@ 1586
SEA 1580
ints 1578
accur@@ 1578
gro@@ 1577
rem@@ 1577
techni@@ 1574
tured 1572
entive 1572
Priv@@ 1570
Â@@ 1570
tee 1570
earli@@ 1566
etric 1564
combat@@ 1563
lam@@ 1562
tioners 1560
recruit@@ 1559
shi@@ 1558
Sav@@ 1555
ie 1552
ept@@ 1552
guaran@@ 1551
defici@@ 1550
alition 1549
job@@ 1545
atell@@ 1542
esp@@ 1540
Syri@@ 1540
ven 1539
hist@@ 1538
CSA 1538
announc@@ 1537
emaking 1536
lying 1534
Au@@ 1533
enh@@ 1532
Resol@@ 1530
lat@@ 1529
son@@ 1528
Eli@@ 1526
habit@@ 1524
ania 1522
tec@@ 1521
anes 1521
printed 1520
PB 1515
istics 1513
through@@ 1510
descri@@ 1509
fers 1509
Chang@@ 1506
posit 1505
pip@@ 1505
acci@@ 1504
Electr@@ 1503
log 1503
inm@@ 1502
chem@@ 1497
depart@@ 1495
pollut@@ 1494
liquid@@ 1493
dies 1491
priv@@ 1491
jur@@ 1488
itec@@ 1485
Viet@@ 1481
schedul@@ 1479
Ve@@ 1478
eam 1477
poin@@ 1474
incenti@@ 1471
ugg@@ 1469
menting 1468
Virg@@ 1468
rail@@ 1467
concep@@ 1462
cular 1454
liti@@ 1452
â@@ 1452
fic 1451
ethn@@ 1449
ardless 1447
ulner@@ 1447
pped 1446
dissem@@ 1444
ials 1440
oftware 1438
foli@@ 1438
Tex@@ 1434
oul@@ 1433
Lou@@ 1432
ink 1431
Sy@@ 1429
@@ 1427
Fol@@ 1426
ames 1424
addres@@ 1423
lowing 1422
plain@@ 1419
revi@@ 1417
itarian 1414
vely 1414
resol@@ 1412
agenc@@ 1411
veri@@ 1411
lot@@ 1406
USC@@ 1405
scienti@@ 1404
Whe@@ 1400
bureau@@ 1398
dead@@ 1397
exist@@ 1392
ware 1388
fal@@ 1386
complex@@ 1383
bon 1383
//@@ 1383
proceed@@ 1381
ardi@@ 1379
alth@@ 1376
Ris@@ 1373
lment 1372
doll@@ 1369
pu@@ 1367
compu@@ 1367
emed 1365
etheless 1360
ring@@ 1358
essive 1358
pharmaceu@@ 1358
haz@@ 1354
Objec@@ 1354
sha@@ 1353
tern@@ 1353
sees 1350
feren@@ 1349
vehic@@ 1348
pile 1345
Facil@@ 1343
tims 1339
eived 1338
etroleum 1336
un 1335
exual 1334
ferring 1332
yl@@ 1330
confir@@ 1330
criteri@@ 1329
mortg@@ 1328
Sched@@ 1325
Colum@@ 1323
dian 1319
rer@@ 1319
Statisti@@ 1316
decre@@ 1315
isdic@@ 1314
consolid@@ 1314
denti@@ 1313
Cle@@ 1312
maj@@ 1312
ond 1310
econ@@ 1309
desi@@ 1308
biom@@ 1308
uro@@ 1306
Austr@@ 1306
ball@@ 1305
vail@@ 1301
nal 1301
lag 1300
profici@@ 1295
elimin@@ 1293
Cub@@ 1291
Busin@@ 1289
urther@@ 1288
edg@@ 1288
effici@@ 1287
endang@@ 1280
aska 1280
prepar@@ 1280
haps 1277
Haw@@ 1275
profes@@ 1273
legitim@@ 1272
Mus@@ 1272
Surve@@ 1272
House-@@ 1271
Emerg@@ 1270
Nat@@ 1269
defini@@ 1268
industri@@ 1267
catastroph@@ 1266
Nov@@ 1264
param@@ 1262
Lif@@ 1261
truc@@ 1260
Davi@@ 1258
dom 1254
Four@@ 1253
isons 1252
inqu@@ 1248
tas@@ 1244
ether 1244
prior@@ 1242
config@@ 1241
torate 1237
roun@@ 1232
edic@@ 1232
benefici@@ 1231
politan 1228
deriv@@ 1225
deci@@ 1222
je@@ 1221
Tec@@ 1221
junction 1219
targ@@ 1216
Ha@@ 1212
@@ 1212
kruptcy 1209
ruption 1207
wise 1206
vertheless 1200
compris@@ 1199
knowledg@@ 1199
norm@@ 1199
sugg@@ 1193
groun@@ 1191
bec@@ 1188
thous@@ 1187
sa@@ 1185
Reti@@ 1185
Aug@@ 1185
Judg@@ 1184
Secur@@ 1184
ror@@ 1184
ondary 1170
Maj@@ 1164
obstac@@ 1162
refl@@ 1161
Need@@ 1157
Enter@@ 1157
bound@@ 1156
testi@@ 1156
perman@@ 1151
announ@@ 1151
poll@@ 1149
Avail@@ 1148
alog@@ 1145
 @@ 1143
• 1139
sight 1138
GC 1136
Egyp@@ 1130
tually 1126
vered 1125
rob@@ 1124
gre@@ 1124
intel@@ 1121
categ@@ 1121
oura@@ 1118
demograph@@ 1117
erve 1117
hosp@@ 1108
consider@@ 1107
stake@@ 1106
Venezuel@@ 1106
arcotics 1104
rough 1102
asp@@ 1101
sus 1100
dev@@ 1098
Weap@@ 1096
Doc@@ 1091
acco 1091
revis@@ 1090
ree 1086
teleph@@ 1086
mos@@ 1082
lays 1081
Feb@@ 1081
Distr@@ 1080
fix@@ 1074
premi@@ 1072
occ@@ 1071
ervic@@ 1070
oftw@@ 1069
512-60@@ 1069
mun@@ 1068
sit 1068
duci@@ 1068
life@@ 1067
edical 1061
Gi@@ 1056
quarter@@ 1055
Afric@@ 1050
thre@@ 1050
datab@@ 1048
mation 1046
fits 1043
rais@@ 1041
advant@@ 1039
ardous 1036
ction 1036
ffs 1035
½ 1035
preciation 1034
eping 1032
Mexic@@ 1032
thered 1031
missi@@ 1030
assist@@ 1028
vide@@ 1027
nat@@ 1024
● 1019
includ@@ 1015
lion 1013
Stand@@ 1012
tability 1004
U.S@@ 1002
portation 1001
ech 998
Af@@ 998
BL@@ 994
enact@@ 991
Euro@@ 989
dit 987
lik@@ 984
compati@@ 975
antic 975
CARE 974
Back@@ 972
Log@@ 972
enci@@ 972
ternal 972
sever@@ 971
life-@@ 966
versity 966
enza 964
tribu@@ 960
agency@@ 960
Wild@@ 959
atis@@ 957
Adj@@ 954
mic@@ 952
//www.gao.gov@@ 952
tainment 951
dedic@@ 949
overty 947
correspon@@ 943
-I@@ 938
rety 938
reless 938
conduc@@ 937
Cir@@ 937
recur@@ 934
ulative 931
Hawai@@ 928
consen@@ 927
astal 926
requi@@ 926
Bec@@ 926
orig@@ 926
....@@ 925
USAI@@ 923
enship 921
cope 919
Regi@@ 918
Jer@@ 917
expendit@@ 912
Dep@@ 912
Reven@@ 911
dise@@ 909
profession@@ 908
ollar 908
nec@@ 907
Frank 905
cohol 904
bin@@ 903
ingu@@ 900
manufactu@@ 897
ben@@ 896
fea@@ 894
taxpay@@ 892
third-@@ 891
eav@@ 891
pens@@ 888
aliz@@ 885
trum 885
‘ 885
ership 884
wan@@ 883
Cla@@ 882
spe@@ 880
ves@@ 879
Vir@@ 878
Signific@@ 878
Mul@@ 876
seeing 873
itory 871
thir@@ 870
Dist@@ 869
nition 864
Accor@@ 863
overn@@ 862
ministr@@ 862
integ@@ 862
Pot@@ 861
quick@@ 859
allow@@ 858
lor@@ 856
Treasur@@ 855
Chem@@ 855
certific@@ 854
Acknowledg@@ 850
exec@@ 848
zon@@ 846
udic@@ 842
tren@@ 840
ysts 835
abling 834
embers 834
abled 833
accept@@ 831
tari@@ 827
havi@@ 826
signific@@ 824
world@@ 823
immig@@ 823
deli@@ 823
gar 822
kewise 820
lateral 818
Indone@@ 817
areness 816
US-@@ 816
STE@@ 815
radio@@ 814
ellectual 812
Afghan@@ 809
Fig@@ 809
Europe@@ 808
tention 807
del 804
imbur@@ 804
sch@@ 804
activi@@ 803
custodi@@ 802
suppli@@ 800
aceu@@ 799
venile 795
highligh@@ 792
illed 792
wholes@@ 791
cli@@ 790
establish@@ 789
meet@@ 785
electr@@ 785
Kore@@ 785
lem 783
Braz@@ 782
agend@@ 777
i.@@ 775
ld 774
toc@@ 772
Proper@@ 769
guarante@@ 767
Recom@@ 767
illion 767
Tit@@ 764
sives 764
repos@@ 764
tiz@@ 763
easi@@ 760
mend@@ 758
elecommun@@ 758
eps 757
exper@@ 754
diffe@@ 754
Intel@@ 753
depen@@ 750
parag@@ 750
ques 748
Georgi@@ 746
viation 745
reau@@ 744
sition 743
rable 743
eler@@ 740
htt@@ 740
tempor@@ 737
achi@@ 737
tise 736
ild@@ 736
advantaged 736
Ur@@ 735
Legisl@@ 733
ema@@ 733
astroph@@ 733
difficul@@ 732
Commer@@ 731
Ukra@@ 729
Bran@@ 727
adequ@@ 725
trine 723
engag@@ 722
liferation 721
asts 718
evision 718
lear@@ 717
monit@@ 716
g. 715
NSIA@@ 714
.. 712
Wash@@ 712
Electron@@ 711
sored 710
istan@@ 709
typ@@ 707
citiz@@ 705
icitly 705
With@@ 704
ï@@ 704
sey 703
ada 700
_ 699
ou 699
imprison@@ 697
ó@@ 696
marily 692
IST 688
ylum 687
opportun@@ 684
epwater 683
waste@@ 680
bean 680
krupt@@ 678
sustain@@ 677
........@@ 676
D.C@@ 673
endar 673
munition 673
commis@@ 670
odic 670
judici@@ 669
ll 669
scrutin@@ 669
relation@@ 669
beg@@ 667
recipi@@ 667
experienc@@ 661
ffe@@ 657
Ran@@ 657
® 656
Represent@@ 654
minal 654
airy 653
aire 652
Ang@@ 652
Tre@@ 651
offen@@ 651
decision-@@ 651
ghts 645
Califor@@ 644
trol@@ 641
¿@@ 640
osyst@@ 640
lifer@@ 637
ligence 628
Moder@@ 627
versities 627
fig@@ 627
meaning@@ 626
satell@@ 626
cust@@ 625
fraudul@@ 622
anim@@ 622
const@@ 618
icip@@ 617
mograph@@ 616
orous 615
statisti@@ 614
critici@@ 612
amend@@ 611
uton@@ 608
agricul@@ 607
chil@@ 606
Jap@@ 606
sel 601
believ@@ 601
lap 599
Virgini@@ 596
Carol@@ 595
Gen 595
fulness 594
! 591
show@@ 591
democr@@ 587
nership 586
sidy 584
repres@@ 583
ado 583
dea@@ 579
controversi@@ 577
candi@@ 574
ights 573
eric@@ 573
hind 572
undering 571
injur@@ 569
King@@ 566
solid@@ 564
joint@@ 559
prohib@@ 559
stit@@ 559
tative 558
chann@@ 558
Red@@ 557
Engine@@ 553
gao.gov@@ 549
Wast@@ 546
ould 544
eters 544
promul@@ 543
reac@@ 542
` 539
physici@@ 538
ñ@@ 536
jects 534
vie@@ 534
ballo@@ 533
9/@@ 533
remain@@ 532
ruptions 531
essee 529
Est@@ 529
transp@@ 528
Preven@@ 528
spectives 527
Eg@@ 525
Stu@@ 524
eliness 523
heav@@ 522
tici@@ 519
Modern@@ 519
rounding 517
ustom@@ 516
Supple@@ 516
carr@@ 516
princi@@ 515
agno@@ 512
thering 511
decla@@ 510
inu@@ 510
Yor@@ 509
Ã@@ 509
large-@@ 508
earch 506
utonium 503
scenari@@ 502
ergy 499
enhouse 497
GAO@@ 496
HIV@@ 496
anese 494
aily 492
thres@@ 487
rees 487
fed@@ 486
eda 484
reasur@@ 483
Claim@@ 483
arent 482
stly 480
enem@@ 479
suppor@@ 479
discus@@ 478
cipl@@ 476
Cali@@ 473
Chil@@ 473
ycl@@ 468
ustr@@ 467
vend@@ 466
kno@@ 465
Guid@@ 463
uman 462
Tenn@@ 462
great@@ 461
estici@@ 456
pare 456
hn 454
degre@@ 454
ventional 453
encourag@@ 452
inger@@ 451
Qa@@ 448
N. 447
defic@@ 447
consi@@ 447
Dod@@ 444
icop@@ 444
resent@@ 442
alth 442
ause 442
ither 438
passeng@@ 438
Scho@@ 437
independ@@ 437
private-@@ 436
curred 432
opers 428
vestock 425
Isra@@ 424
empor@@ 423
urric@@ 423
Taiw@@ 423
Bet@@ 422
juana 422
Appe@@ 421
Angel@@ 420
@@ 420
thirds 419
civili@@ 419
vities 417
estration 417
ú@@ 417
help@@ 414
í@@ 414
tainties 413
Tai@@ 410
uncer@@ 410
Missi@@ 409
chemic@@ 407
Englis@@ 406
demon@@ 404
odic@@ 404
Afgh@@ 404
anol 403
elo@@ 402
Fis@@ 400
taint@@ 399
ervists 399
½@@ 398
í 393
carry@@ 390
ud 390
histor@@ 388
ule 388
recre@@ 386
vulner@@ 384
krup@@ 381
astro@@ 381
sensi@@ 380
substan@@ 372
receip@@ 370
volum@@ 370
lightly 367
previ@@ 366
There@@ 365
arying 363
bying 361
Beg@@ 361
Capit@@ 360
ittee 360
mari@@ 360
€@@ 360
NAP 356
periodic@@ 353
rout@@ 352
sistance 349
etrole@@ 349
Fam@@ 348
udg@@ 347
ember 345
spon@@ 345
itan 342
utri@@ 341
commod@@ 339
figh@@ 339
CFA 339
uran@@ 337
ﬁ 337
Kat@@ 335
preme 334
string@@ 334
wee@@ 327
Ari@@ 327
san 327
hir@@ 325
Fr@@ 324
airs 323
chos@@ 322
espread 322
ream 322
ittees 322
troller 322
inely 319
Environ@@ 319
egr@@ 319
Tot@@ 317
implemen@@ 317
Amend@@ 316
oultry 316
figu@@ 314
vess@@ 313
appoint@@ 313
stoc@@ 312
dingly 310
elecom@@ 310
ricul@@ 309
stac@@ 309
pub@@ 303
Gul@@ 303
CNM@@ 303
themsel@@ 302
attor@@ 299
Smith@@ 299
Palest@@ 299
Florid@@ 298
Addi@@ 297
generaliz@@ 294
nes@@ 290
gros@@ 289
oline 289
Next@@ 288
foc@@ 287
five@@ 287
duce 285
servicem@@ 284
tim 283
à@@ 283
itoring 283
totyp@@ 280
territ@@ 279
Samo@@ 279
Katr@@ 273
±@@ 273
`@@ 272
commer@@ 267
__@@ 266
Agricul@@ 265
hundre@@ 265
else@@ 262
ques@@ 260
ploy 259
Mass@@ 258
exceed@@ 258
@@ 258
@@ 256
iti 255
Janu@@ 251
dou@@ 251
Redu@@ 251
manufac@@ 250
Mary@@ 250
Acti@@ 249
vou@@ 247
raph 244
confl@@ 242
restor@@ 241
underst@@ 239
VISIT 238
atin 230
cuit 229
bagg@@ 228
Dak@@ 227
Geor@@ 226
immedi@@ 224
opini@@ 222
gress 221
Cana@@ 219
HIV/@@ 218
prelimin@@ 215
Compens@@ 215
Tak@@ 215
Octo@@ 214
fore 212
eget@@ 212
ô@@ 212
Ohi@@ 209
referr@@ 208
metro@@ 208
Prepa@@ 207
icit@@ 206
commodi@@ 206
sly 205
µ@@ 205
administ@@ 204
igu@@ 204
Tod@@ 204
ween 204
Finan@@ 202
legi@@ 199
uclear 199
surances 199
uctu@@ 197
idly 195
Individu@@ 195
< 193
volunt@@ 192
reco@@ 190
Pennsylv@@ 189
> 186
consistencies 185
dru@@ 184
Sign@@ 183
Â 183
−@@ 182
ister 181
Compli@@ 181
arch 180
ribu@@ 179
scrub@@ 179
Penn@@ 177
£@@ 174
rom 173
and/@@ 172
~@@ 171
á 168
vil 167
Are@@ 167
uel@@ 166
compa@@ 164
Devel@@ 164
und 163
Oreg@@ 162
yi@@ 161
frau@@ 160
umul@@ 159
Aut@@ 159
tob@@ 158
opar@@ 157
tocols 157
usu@@ 156
ocr@@ 156
Nev@@ 156
Chic@@ 155
especi@@ 154
elihood 154
stain@@ 154
Indu@@ 153
stim@@ 152
APH@@ 151
magnit@@ 149
devel@@ 149
forcement 148
cil 148
urthermore 147
partment 147
orid@@ 146
Febru@@ 145
extrem@@ 144
limate 141
More@@ 141
dentiality 140
­@@ 140
acu@@ 139
 138
Color@@ 137
Illino@@ 136
°@@ 136
former@@ 135
Arizon@@ 135
Cari@@ 135
jured 133
× 132
ww@@ 130
utin@@ 129
Clint@@ 128
w.@@ 128
‐@@ 127
erto 126
¢ 126
Probl@@ 125
exic@@ 124
patter@@ 122
Minnes@@ 122
Mississi@@ 119
ederal 117
scr@@ 116
col 115
Mich@@ 114
β 114
ultim@@ 112
¢@@ 112
ablis@@ 110
− 110
recip@@ 109
o.go@@ 108
­ 107
becom@@ 105
willing@@ 105
―@@ 105
subsi@@ 105
™ 105
pread 104
recor@@ 104
¶ 104
Amtra@@ 102
plainti@@ 101
ellec@@ 101
etter 101
{ 100
Simil@@ 98
β@@ 98
α 96
─ 95
attemp@@ 94
} 94
~ 94
aff 93
budg@@ 92
©@@ 92
ç@@ 91
± 91
mong 89
Michig@@ 88
ervi@@ 87
prehensive 87
∑ 86
Louisi@@ 83
inging 81
subsequ@@ 80
� 78
³@@ 78
hic@@ 77
NTS@@ 77
Carib@@ 77
His@@ 76
Paci@@ 76
opul@@ 73
dren 73
Econ@@ 73
⎯@@ 71
Sovie@@ 70
Massachuset@@ 69
ć 68
isi@@ 67
Pak@@ 67
til 66
 66
ü@@ 62
roduce 61
OND@@ 60
à 59
✔ 59
alleng@@ 58
𝑟@@ 57
Reclam@@ 55
tinent 55
¥@@ 55
ö@@ 55
 55
■ 55
ā@@ 54
¡@@ 53
abor 52
÷ 52
udget 52
ublic 51
encoura@@ 50
dividu@@ 50
rema@@ 50
estig@@ 49
illance 49
Ano@@ 49
ã@@ 49
elim@@ 48
𝑡@@ 48
-to-day 47
accompan@@ 47
andu@@ 47
𝑀@@ 47
CEN 46
´@@ 45
č@@ 44
gressional 42
busin@@ 42
�@@ 42
omen 42
syl@@ 42
@@ 41
© 40
progra@@ 40
─@@ 40
ERI@@ 40
kra@@ 38
𝑝@@ 38
leb@@ 37
è@@ 37
elig@@ 36
μ 36
τ 36
è 36
𝐶@@ 36
ophistic@@ 35
Opportun@@ 35
usin@@ 35
€ 35
· 35
❒ 35
estic 34
mea@@ 34
° 33
μ@@ 33
𝑐@@ 33
  33
viron@@ 31
reng@@ 31
¼@@ 31
 31
done@@ 30
↔@@ 30
desp@@ 29
π 29
□ 29
䊳 29
█@@ 28
 28
reau 27
¼ 27
Á@@ 26
syst@@ 26
✓@@ 25
Ira@@ 24
Massachus@@ 24
nam 24
recog@@ 24
zuel@@ 24
Vene@@ 24
audi 24
ï 24
●@@ 24
γ 24
ﬂ 24
preven@@ 23
ä@@ 23
𝑁@@ 23
ﬁ@@ 22
ε@@ 22
𝑖@@ 22
intenance 21
inhe@@ 20
ssi@@ 20
×@@ 20
®@@ 20
Î@@ 20
·@@ 20
ε 20
𝑠@@ 20
𝑏@@ 20
𝛾@@ 20
ganiz@@ 19
redness 19
¦ 19
ults 19
µ 19
δ 19
○ 19
𝛽@@ 19
 19
¾ 18
¶@@ 18
∏ 18
Desp@@ 17
roduc@@ 17
ticle 17
pendix 17
†@@ 17
γ@@ 17
ê@@ 16
@@ 16
ú 16
|@@ 16
ı@@ 16
@@ 16
 16
◐ 16
◌ 16
@@ 16
α@@ 15
国@@ 15
lobal 15
𝑜@@ 15
fense 14
Apri@@ 14
≤ 14
onnel 14
throu@@ 14
º@@ 14
 14
 14
𝐿@@ 14
𝑚 14
ecutive 13
portun@@ 13
― 13
Dodd-@@ 13
mework 13
ó 13
; 13
 13
𝑗 13
𝑡 13
𝛽 13
𝐾@@ 13
urther 12
⅓ 12
中@@ 12
Π 12
▪ 12
ρ 12
δ@@ 12
λ 12
λ@@ 12
 12
 12
𝑞 12
𝑃@@ 12
Progra@@ 11
^@@ 11
•@@ 11
urement 11
银@@ 11
 11
η@@ 11
Î 11
𝛿 11
@@ 11
owever 10
ilies 10
→ 10
行 10
š@@ 10
odology 10
tog@@ 10
« 10
É 10
ğ@@ 10
ş 10
 10
 10
@@ 10
❒@@ 10
» 10
 10
𝑆@@ 10
uture 9
̶ 9
¡ 9
@@ 9
@@ 9
| 9
 9
 9
𝜀@@ 9
 9
 9
𝜇@@ 9
█ 8
É@@ 8
frastructure 8
¤@@ 8
@@ 8
@@ 8
@@ 8
^ 8
∆@@ 8
consid@@ 8
≥ 8
Σ 8
θ 8
Φ 8
contam@@ 8
 8
 8
 8
𝜆@@ 8
𝑛@@ 8
𝑖 8
𝑑@@ 8
❏ 8
𝜎@@ 8
verth@@ 7
 7
edom 7
‐ 7
š 7
ë@@ 7
ê 7
Ã 7
ø@@ 7
@@ 7
𝑃 7
𝐷@@ 7
£ 6
@@ 6
achus@@ 6
depo@@ 6
™@@ 6
annie 6
 6
@@ 6
ρ@@ 6
₤@@ 6
ˆ 6
¿ 6
gao.go@@ 6
ß 6
𝑒@@ 6
𝑌@@ 6
̂@@ 6
𝐑@@ 6
 6
₂@@ 5
ν@@ 5
servations 5
√ 5
˚@@ 5
民@@ 5
陈@@ 5
udici@@ 5
nego@@ 5
′ 5
Π@@ 5
 5
@@ 5
@@ 5
 5
Ï@@ 5
 5
 5
Σ@@ 5
ø 5
Δ@@ 5
 5
@@ 5
𝑔 5
𝛿@@ 5
𝑓@@ 5
𝑁 5
𝐹@@ 5
Đ@@ 4
exerc@@ 4
¦@@ 4
人@@ 4
Ú@@ 4
Ó@@ 4
‎ 4
¥ 4
atisti@@ 4
‒ 4
ζ@@ 4
ζ 4
revie@@ 4
 4
sylv@@ 4
 4
φ 4
purch@@ 4
⎜ 4
√@@ 4
◕ 4
Θ 4
≤@@ 4
𝛼 4
Ω 4
𝜉 4
𝛾 4
𝛃 4
𝛃@@ 4
𝑚@@ 4
𝐾 4
𝐴@@ 4
∝@@ 4
utrition 3
业@@ 3
监@@ 3
管@@ 3
理@@ 3
刘@@ 3
¸ 3
π@@ 3
‑@@ 3
‎@@ 3
″ 3
Š@@ 3
scho@@ 3
ô 3
С@@ 3
ϕ 3
À 3
∂@@ 3
 3
@@ 3
➜ 3
@@ 3
@@ 3
@@ 3
@@ 3
 3
 3
 3
σ@@ 3
Λ 3
◑ 3
◔ 3
𝑘@@ 3
𝑔@@ 3
𝑢@@ 3
𝐱@@ 3
𝐢@@ 3
𝜒@@ 3
𝐻 3
𝛼@@ 3
∗@@ 3
𝐸@@ 3
𝑀 3
𝑑 3
а@@ 3
σ 3
𝐿 3
 3
İ@@ 2
ả@@ 2
农@@ 2
发@@ 2
家@@ 2
出@@ 2
建@@ 2
设@@ 2
督@@ 2
委@@ 2
员@@ 2
会 2
外@@ 2
战@@ 2
事 2
光@@ 2
ⁿ 2
terans 2
@@ 2
@@ 2
² 2
³ 2
⅔ 2
ņ@@ 2
Ü@@ 2
ł@@ 2
‛@@ 2
@@ 2
¨@@ 2
â 2
 2
susta@@ 2
ppi 2
† 2
∑@@ 2
@@ 2
´ 2
 2
 2
 2
 2
Ø@@ 2
Ω 2
 2
⋅@@ 2
Syst@@ 2
 2
ϊ@@ 2
χ 2
 2
𝑥@@ 2
 2
◓ 2
𝑏 2
𝑧@@ 2
𝑋@@ 2
𝑛 2
𝐣 2
𝐦 2
𝑎@@ 2
̂ 2
𝐕@@ 2
𝐽@@ 2
𝐸 2
𝜃@@ 2
𝑠 2
Ö@@ 2
 2
◒ 2
‡ 2
 2
@@ 2
@@ 2
@@ 2
æ@@ 2
₂ 1
₄ 1
₆ 1
₃ 1
≡ 1
ộ@@ 1
ệ@@ 1
∙@@ 1
̊ 1
ū 1
ĕ@@ 1
ė@@ 1
@@ 1
展@@ 1
开@@ 1
进@@ 1
口@@ 1
生@@ 1
地@@ 1
下@@ 1
钱@@ 1
庄 1
华@@ 1
共@@ 1
和@@ 1
务@@ 1
院 1
工@@ 1
商@@ 1
币 1
行@@ 1
尚@@ 1
福@@ 1
林 1
明@@ 1
康 1
财@@ 1
政@@ 1
部 1
汇@@ 1
局 1
证@@ 1
券@@ 1
走@@ 1
去@@ 1
略 1
独@@ 1
立@@ 1
董@@ 1
部@@ 1
̃@@ 1
福 1
克@@ 1
贵 1
存 1
华 1
元@@ 1
成 1
郭@@ 1
玉@@ 1
闪 1
何@@ 1
培@@ 1
蓉 1
胡@@ 1
佳 1
江@@ 1
天@@ 1
勇 1
李@@ 1
劲@@ 1
松 1
滕@@ 1
彪 1
曾@@ 1
金@@ 1
燕 1
武@@ 1
权 1
丁@@ 1
锡@@ 1
奎 1
卫@@ 1
国 1
斯@@ 1
伟@@ 1
江 1
梁@@ 1
小@@ 1
军 1
宋@@ 1
泽 1
ⁿ@@ 1
 1
χ@@ 1
@@ 1
ˋ@@ 1
区 1
军@@ 1
事@@ 1
思@@ 1
想 1
ã 1
⁄@@ 1
÷@@ 1
ì 1
-Im 1
ć@@ 1
¾@@ 1
ì@@ 1
estern 1
¯@@ 1
Ä 1
Ì@@ 1
@@ 1
@@ 1
▲ 1
▼ 1
‍@@ 1
Ç@@ 1
ϕ@@ 1
ễ@@ 1
ấ@@ 1
ũ@@ 1
ustice 1
Τ@@ 1
Ô@@ 1
 1
 1
Ø 1
← 1
→@@ 1
ufac@@ 1
@@ 1
lino@@ 1
φ@@ 1
∈@@ 1
oundation 1
ψ 1
η 1
sched@@ 1
ß@@ 1
ƒ 1
volun@@ 1
⎛ 1
⎝ 1
prohi@@ 1
₩@@ 1
ª 1
ö 1
 1
 1
 1
⁄ 1
𝛌@@ 1
Λ@@ 1
𝑦 1
◐@@ 1
○@@ 1
 1
ª@@ 1
𝑦@@ 1
𝐣@@ 1
𝜇 1
𝑙@@ 1
𝑙 1
𝛉@@ 1
𝛅 1
𝟏@@ 1
𝐑 1
𝐓 1
≠@@ 1
𝐹 1
𝜆 1
𝑘 1
ℎ@@ 1
 1
ο 1
𝐷 1
𝑝 1
‒@@ 1
 1
ӧ@@ 1
Å@@ 1
∗ 1
𝑓 1
ŀ@@ 1
 1
establis@@ 1
 1
 1
ƨ@@ 1
 1
Ʈ@@ 1
